unsigned char gesture_model_tflite[] = {
  0x1c, 0x00, 0x00, 0x00, 0x54, 0x46, 0x4c, 0x33, 0x14, 0x00, 0x20, 0x00,
  0x1c, 0x00, 0x18, 0x00, 0x14, 0x00, 0x10, 0x00, 0x0c, 0x00, 0x00, 0x00,
  0x08, 0x00, 0x04, 0x00, 0x14, 0x00, 0x00, 0x00, 0x1c, 0x00, 0x00, 0x00,
  0x98, 0x00, 0x00, 0x00, 0xf0, 0x00, 0x00, 0x00, 0xa0, 0x4f, 0x00, 0x00,
  0xb0, 0x4f, 0x00, 0x00, 0x74, 0x55, 0x00, 0x00, 0x03, 0x00, 0x00, 0x00,
  0x01, 0x00, 0x00, 0x00, 0x10, 0x00, 0x00, 0x00, 0x00, 0x00, 0x0a, 0x00,
  0x10, 0x00, 0x0c, 0x00, 0x08, 0x00, 0x04, 0x00, 0x0a, 0x00, 0x00, 0x00,
  0x0c, 0x00, 0x00, 0x00, 0x1c, 0x00, 0x00, 0x00, 0x3c, 0x00, 0x00, 0x00,
  0x0f, 0x00, 0x00, 0x00, 0x73, 0x65, 0x72, 0x76, 0x69, 0x6e, 0x67, 0x5f,
  0x64, 0x65, 0x66, 0x61, 0x75, 0x6c, 0x74, 0x00, 0x01, 0x00, 0x00, 0x00,
  0x04, 0x00, 0x00, 0x00, 0x90, 0xff, 0xff, 0xff, 0x0a, 0x00, 0x00, 0x00,
  0x04, 0x00, 0x00, 0x00, 0x08, 0x00, 0x00, 0x00, 0x6f, 0x75, 0x74, 0x70,
  0x75, 0x74, 0x5f, 0x30, 0x00, 0x00, 0x00, 0x00, 0x01, 0x00, 0x00, 0x00,
  0x04, 0x00, 0x00, 0x00, 0x46, 0xb0, 0xff, 0xff, 0x04, 0x00, 0x00, 0x00,
  0x0e, 0x00, 0x00, 0x00, 0x6b, 0x65, 0x72, 0x61, 0x73, 0x5f, 0x74, 0x65,
  0x6e, 0x73, 0x6f, 0x72, 0x5f, 0x38, 0x00, 0x00, 0x02, 0x00, 0x00, 0x00,
  0x34, 0x00, 0x00, 0x00, 0x04, 0x00, 0x00, 0x00, 0xdc, 0xff, 0xff, 0xff,
  0x0d, 0x00, 0x00, 0x00, 0x04, 0x00, 0x00, 0x00, 0x13, 0x00, 0x00, 0x00,
  0x43, 0x4f, 0x4e, 0x56, 0x45, 0x52, 0x53, 0x49, 0x4f, 0x4e, 0x5f, 0x4d,
  0x45, 0x54, 0x41, 0x44, 0x41, 0x54, 0x41, 0x00, 0x08, 0x00, 0x0c, 0x00,
  0x08, 0x00, 0x04, 0x00, 0x08, 0x00, 0x00, 0x00, 0x0c, 0x00, 0x00, 0x00,
  0x04, 0x00, 0x00, 0x00, 0x13, 0x00, 0x00, 0x00, 0x6d, 0x69, 0x6e, 0x5f,
  0x72, 0x75, 0x6e, 0x74, 0x69, 0x6d, 0x65, 0x5f, 0x76, 0x65, 0x72, 0x73,
  0x69, 0x6f, 0x6e, 0x00, 0x0e, 0x00, 0x00, 0x00, 0xac, 0x4e, 0x00, 0x00,
  0xa4, 0x4e, 0x00, 0x00, 0x94, 0x4c, 0x00, 0x00, 0x84, 0x2c, 0x00, 0x00,
  0x64, 0x2c, 0x00, 0x00, 0xd4, 0x2b, 0x00, 0x00, 0xc4, 0x2a, 0x00, 0x00,
  0xb4, 0x00, 0x00, 0x00, 0xac, 0x00, 0x00, 0x00, 0xa4, 0x00, 0x00, 0x00,
  0x9c, 0x00, 0x00, 0x00, 0x94, 0x00, 0x00, 0x00, 0x74, 0x00, 0x00, 0x00,
  0x04, 0x00, 0x00, 0x00, 0xfa, 0xb0, 0xff, 0xff, 0x04, 0x00, 0x00, 0x00,
  0x60, 0x00, 0x00, 0x00, 0x10, 0x00, 0x00, 0x00, 0x00, 0x00, 0x00, 0x00,
  0x08, 0x00, 0x0e, 0x00, 0x08, 0x00, 0x04, 0x00, 0x08, 0x00, 0x00, 0x00,
  0x10, 0x00, 0x00, 0x00, 0x24, 0x00, 0x00, 0x00, 0x00, 0x00, 0x06, 0x00,
  0x08, 0x00, 0x04, 0x00, 0x06, 0x00, 0x00, 0x00, 0x04, 0x00, 0x00, 0x00,
  0x00, 0x00, 0x00, 0x00, 0x0c, 0x00, 0x18, 0x00, 0x14, 0x00, 0x10, 0x00,
  0x0c, 0x00, 0x04, 0x00, 0x0c, 0x00, 0x00, 0x00, 0x9b, 0x4a, 0x37, 0x9c,
  0xb7, 0x94, 0xc9, 0x1a, 0x02, 0x00, 0x00, 0x00, 0x02, 0x00, 0x00, 0x00,
  0x04, 0x00, 0x00, 0x00, 0x06, 0x00, 0x00, 0x00, 0x32, 0x2e, 0x31, 0x39,
  0x2e, 0x30, 0x00, 0x00, 0x66, 0xb1, 0xff, 0xff, 0x04, 0x00, 0x00, 0x00,
  0x10, 0x00, 0x00, 0x00, 0x31, 0x2e, 0x35, 0x2e, 0x30, 0x00, 0x00, 0x00,
  0x00, 0x00, 0x00, 0x00, 0x00, 0x00, 0x00, 0x00, 0x70, 0xac, 0xff, 0xff,
  0x74, 0xac, 0xff, 0xff, 0x78, 0xac, 0xff, 0xff, 0x7c, 0xac, 0xff, 0xff,
  0x92, 0xb1, 0xff, 0xff, 0x04, 0x00, 0x00, 0x00, 0x00, 0x2a, 0x00, 0x00,
  0x31, 0xd5, 0xa3, 0xbd, 0x1a, 0x22, 0x7e, 0xbe, 0x25, 0xe6, 0xf1, 0xbb,
  0x43, 0x63, 0xf0, 0x3d, 0xb0, 0x4c, 0x65, 0xbd, 0xbf, 0x2a, 0x70, 0x3d,
  0x29, 0x1f, 0xc7, 0x3d, 0xf0, 0x17, 0x77, 0x3e, 0x77, 0xb3, 0x8c, 0xbe,
  0x58, 0x5f, 0x82, 0x3e, 0xf1, 0xd3, 0x01, 0x3d, 0x70, 0x8f, 0xaa, 0x3d,
  0x19, 0x7e, 0x18, 0xbe, 0x2c, 0x38, 0x1c, 0x3e, 0xc3, 0xb6, 0x35, 0xbe,
  0x08, 0x8e, 0x42, 0x3e, 0x18, 0x91, 0xdc, 0x3d, 0x03, 0x08, 0x52, 0x3e,
  0xf1, 0xc8, 0xdc, 0x3b, 0xe0, 0x5b, 0x33, 0xbe, 0xba, 0xf4, 0x31, 0xbe,
  0xab, 0x00, 0xb8, 0xbd, 0x00, 0xe6, 0xb3, 0xbd, 0x7b, 0xb4, 0xca, 0xbd,
  0x89, 0x14, 0xe2, 0x3b, 0xba, 0xb0, 0x51, 0xbe, 0x25, 0x5a, 0x22, 0x3e,
  0x9e, 0x38, 0x1f, 0xbe, 0x06, 0x1e, 0x82, 0x3c, 0x54, 0xf6, 0x48, 0x3e,
  0x1c, 0x29, 0x50, 0xbe, 0xde, 0xba, 0x95, 0xbd, 0x65, 0x4d, 0x34, 0xbe,
  0x01, 0xa6, 0x3b, 0xbd, 0x5a, 0x93, 0xf6, 0x3d, 0x64, 0x2d, 0xfb, 0xbc,
  0x57, 0x48, 0x32, 0xbd, 0xab, 0x62, 0x42, 0x3c, 0xb2, 0x04, 0x17, 0xbe,
  0xc3, 0x93, 0x55, 0xbe, 0x96, 0x15, 0x82, 0xbe, 0xa5, 0x83, 0x23, 0xbd,
  0x19, 0xfe, 0x23, 0xbe, 0x4d, 0x53, 0x6e, 0xbe, 0x8f, 0xd6, 0x85, 0x3c,
  0xc1, 0x73, 0x87, 0xbd, 0x20, 0xcf, 0x02, 0xbe, 0x3a, 0x13, 0x4a, 0x3e,
  0x61, 0x66, 0xd9, 0xbd, 0x59, 0x02, 0xe6, 0xbd, 0x1c, 0x09, 0x8a, 0xbd,
  0xca, 0xa1, 0x1b, 0xbe, 0x61, 0xd5, 0x99, 0xbd, 0xaa, 0xa5, 0xb3, 0x3b,
  0xad, 0x1f, 0xf6, 0xbd, 0xd5, 0x90, 0x76, 0x3c, 0xde, 0x87, 0x0a, 0xbe,
  0xd3, 0xc9, 0x28, 0x3d, 0xa1, 0xac, 0x80, 0x3e, 0x98, 0xfa, 0x31, 0xbe,
  0x42, 0x17, 0x3e, 0xbe, 0x8c, 0x70, 0x7d, 0xbd, 0x00, 0x8b, 0x01, 0xbe,
  0x4c, 0xf7, 0xcf, 0x3d, 0xf0, 0x34, 0x87, 0x3e, 0x1e, 0x9c, 0xad, 0x3d,
  0xd1, 0xf9, 0x4d, 0x39, 0xff, 0x3c, 0xdd, 0xbd, 0x1a, 0xca, 0x83, 0x3d,
  0x31, 0x93, 0xae, 0xbd, 0x0e, 0x66, 0x8c, 0x3c, 0x9f, 0xb6, 0x88, 0x3e,
  0x05, 0xb6, 0x81, 0xbd, 0xcd, 0xb2, 0x17, 0x3e, 0x25, 0x25, 0x01, 0xbd,
  0x02, 0x67, 0xfe, 0xbd, 0x52, 0xeb, 0x63, 0xbd, 0xf6, 0x96, 0xc6, 0xbd,
  0xaa, 0x0f, 0xee, 0x3c, 0xbf, 0x7f, 0xc1, 0xbd, 0x7c, 0x0c, 0x5c, 0xbe,
  0xa0, 0x09, 0x25, 0x3e, 0xc3, 0x7c, 0xa8, 0x3d, 0x21, 0xac, 0x10, 0x3e,
  0xc8, 0xdf, 0xbb, 0x3d, 0x14, 0x86, 0x90, 0xbd, 0x43, 0x1c, 0xe4, 0x3d,
  0x10, 0xad, 0xdc, 0xbd, 0xcf, 0x49, 0x19, 0xbe, 0xdf, 0xf7, 0x7e, 0xbd,
  0xda, 0x3f, 0x62, 0xbd, 0xe7, 0xfd, 0xb5, 0xbd, 0xa5, 0x98, 0x87, 0x3d,
  0x89, 0x3f, 0x9c, 0xbc, 0x5b, 0xff, 0xe9, 0x3c, 0x3c, 0x4d, 0xca, 0x3d,
  0x5c, 0xd8, 0x2f, 0xbe, 0xac, 0x3d, 0xb4, 0xbd, 0xcb, 0x16, 0x46, 0x3e,
  0x87, 0xe0, 0x35, 0x3e, 0x23, 0xb6, 0x3d, 0xbe, 0xa6, 0x54, 0x7d, 0x3e,
  0xbb, 0x43, 0x1d, 0x3a, 0xca, 0x7f, 0xf8, 0x3c, 0x9e, 0xa4, 0x67, 0x3c,
  0x86, 0x52, 0xca, 0xbd, 0x05, 0x21, 0x7a, 0xbe, 0xe8, 0xd6, 0x42, 0x3e,
  0xfe, 0x78, 0x53, 0x3e, 0xc7, 0xe7, 0xbf, 0xbd, 0x84, 0xcc, 0x45, 0xbe,
  0x2b, 0xa9, 0x13, 0xbd, 0x25, 0xc7, 0x6d, 0x3e, 0xdd, 0x5f, 0xd4, 0x3d,
  0x71, 0xea, 0xfb, 0xbc, 0x27, 0x17, 0xdc, 0x3d, 0x2a, 0xb1, 0xee, 0xbd,
  0x4b, 0x81, 0x86, 0xbd, 0x02, 0x8a, 0x26, 0xbe, 0x4b, 0x87, 0xaf, 0xbd,
  0x6b, 0xc2, 0x32, 0xbe, 0xbf, 0xb5, 0xf1, 0xbd, 0x00, 0xbe, 0x4c, 0xbe,
  0x91, 0xab, 0x77, 0x3d, 0x34, 0xcd, 0x51, 0xbd, 0x01, 0xd0, 0x5c, 0x3d,
  0x1b, 0xb3, 0x4b, 0xbe, 0x3d, 0x23, 0x5e, 0xbd, 0xe4, 0xbc, 0x0d, 0xbe,
  0x15, 0x81, 0x8c, 0xbd, 0x26, 0xc8, 0x89, 0x3e, 0xce, 0x1d, 0xc0, 0xbd,
  0x05, 0x7b, 0x85, 0x3e, 0x64, 0x3c, 0x83, 0xbe, 0xc2, 0xef, 0x31, 0xbd,
  0xb5, 0xd0, 0x51, 0x3e, 0xac, 0x2a, 0x8c, 0xbb, 0xfb, 0xcc, 0x68, 0x3d,
  0x27, 0x27, 0xf2, 0x3d, 0x6d, 0x21, 0x53, 0x3c, 0xeb, 0x6b, 0x94, 0xbc,
  0x4c, 0xff, 0x13, 0x3e, 0xb2, 0xdd, 0xf7, 0xbc, 0xbe, 0xcd, 0x1c, 0x3e,
  0x03, 0xfe, 0xc4, 0x3d, 0x6b, 0xe2, 0x2a, 0xbe, 0xb3, 0xed, 0x1e, 0x3e,
  0x8f, 0xd2, 0x13, 0x3d, 0x54, 0x36, 0x72, 0x3d, 0xb4, 0x5a, 0xfb, 0xbc,
  0xa2, 0x84, 0xfc, 0x3d, 0xfc, 0x23, 0xf6, 0x3c, 0x5f, 0xd1, 0x69, 0x3e,
  0x9a, 0xff, 0xd6, 0x3d, 0xab, 0xed, 0x28, 0xbe, 0x38, 0xa3, 0x6e, 0xbd,
  0xf4, 0x5a, 0x7d, 0xbe, 0x4f, 0x81, 0x8d, 0xbc, 0xbb, 0x10, 0x82, 0xbe,
  0x07, 0x2f, 0x48, 0xbe, 0x89, 0xc2, 0xdf, 0x3d, 0x8b, 0x44, 0xb9, 0xbb,
  0xa7, 0xca, 0x85, 0x3e, 0x21, 0x2f, 0x35, 0x3e, 0xac, 0xaf, 0x00, 0x3e,
  0xca, 0xb5, 0x0f, 0x3e, 0x72, 0x5a, 0x13, 0x3e, 0x86, 0x7a, 0xbb, 0x3d,
  0x81, 0xde, 0x89, 0x3e, 0xd4, 0xe9, 0x11, 0x3d, 0x24, 0xf8, 0x7d, 0x3e,
  0x20, 0xf1, 0x59, 0x3e, 0xd0, 0x2b, 0x28, 0x3e, 0x0d, 0x8a, 0x46, 0x3d,
  0x56, 0xfc, 0x58, 0xbe, 0x0d, 0xf3, 0x4f, 0x3e, 0x3f, 0xb7, 0xd1, 0xba,
  0x49, 0xb0, 0x2a, 0x3e, 0x73, 0x86, 0xf9, 0x3b, 0xaf, 0xe0, 0x8a, 0xbd,
  0x98, 0xaf, 0x36, 0x3e, 0x00, 0xe5, 0x60, 0x3d, 0xd6, 0x0d, 0x6e, 0xbd,
  0x47, 0x4d, 0x8f, 0xbd, 0x64, 0x65, 0x46, 0xbc, 0x4a, 0x86, 0x32, 0x3e,
  0x22, 0x00, 0x02, 0xbe, 0x38, 0xb2, 0x34, 0x3e, 0xe9, 0x7d, 0x2a, 0x3e,
  0xc4, 0x3a, 0x6e, 0x3e, 0x73, 0x85, 0x3b, 0xbe, 0x93, 0xa4, 0x5e, 0xbe,
  0xe3, 0x0a, 0xc7, 0x3d, 0x8c, 0x93, 0x2e, 0xbe, 0x46, 0x67, 0x76, 0x3e,
  0x4e, 0x37, 0x44, 0xbe, 0x1c, 0xcb, 0x46, 0x3e, 0x6d, 0xe8, 0x02, 0xbe,
  0xce, 0xfe, 0x02, 0x3e, 0xe3, 0x31, 0x1d, 0xbe, 0x7d, 0x38, 0x17, 0x3e,
  0x0e, 0x07, 0x8a, 0x3e, 0xa7, 0xa9, 0x1f, 0x3e, 0x61, 0x71, 0x12, 0xbd,
  0xb9, 0x2b, 0xd9, 0x3b, 0x46, 0x7b, 0x14, 0x3e, 0x25, 0x8c, 0xbb, 0x3d,
  0x61, 0xc1, 0x35, 0x3d, 0xa0, 0xed, 0x17, 0xbe, 0x12, 0x30, 0x44, 0xbe,
  0xfd, 0x4b, 0x3e, 0x3e, 0xc9, 0x79, 0x0f, 0x3e, 0x8a, 0x64, 0x15, 0xbd,
  0x7c, 0x1c, 0x55, 0x3e, 0xf1, 0xa8, 0xc5, 0xbd, 0x32, 0xa1, 0x77, 0x3d,
  0x7d, 0xd4, 0x18, 0x3e, 0xe7, 0x46, 0x3d, 0x3d, 0x4d, 0xf2, 0x91, 0x3d,
  0xa4, 0x8f, 0xa1, 0x3d, 0xcc, 0xe4, 0xab, 0xbc, 0x58, 0x9e, 0x94, 0x3d,
  0xed, 0x08, 0x07, 0x3e, 0xfc, 0x82, 0x26, 0xbe, 0xef, 0x7d, 0xbf, 0xbc,
  0x16, 0xc2, 0x3a, 0x3d, 0x54, 0x7d, 0x2e, 0xbe, 0x0c, 0x9a, 0xf5, 0xbd,
  0x19, 0xc4, 0x19, 0xbe, 0x36, 0xf9, 0x9c, 0x3c, 0x1c, 0x85, 0x7f, 0xbe,
  0xb5, 0x6d, 0x07, 0x3e, 0xb7, 0x64, 0x08, 0x3e, 0xd4, 0x85, 0x65, 0xbe,
  0x62, 0x4c, 0x0d, 0x3e, 0x5c, 0x38, 0xc5, 0x3d, 0xe6, 0x1a, 0x65, 0xbe,
  0xc6, 0x42, 0xc9, 0xbd, 0xc9, 0xf2, 0x3f, 0x3e, 0xef, 0x73, 0x63, 0x3e,
  0x14, 0x2a, 0x68, 0x3c, 0xef, 0x58, 0x66, 0x3e, 0x82, 0xf1, 0x08, 0x3d,
  0x2a, 0x10, 0x69, 0xbe, 0x5f, 0xde, 0x3d, 0xbe, 0x4f, 0xac, 0xfe, 0xbd,
  0xf0, 0x28, 0x7b, 0xbe, 0xa5, 0x92, 0x5a, 0xbe, 0x26, 0x37, 0x44, 0x3e,
  0xb8, 0xa6, 0xb1, 0x3d, 0xb1, 0x31, 0x2b, 0xbe, 0x02, 0x0c, 0x4d, 0x3e,
  0xa1, 0xc0, 0x3a, 0xbe, 0xf1, 0x4e, 0x31, 0xbe, 0x3f, 0x66, 0x2a, 0x3e,
  0x9d, 0xf8, 0xb2, 0x3d, 0x0d, 0x18, 0x81, 0xbe, 0x12, 0x08, 0x3b, 0xbe,
  0x20, 0xf5, 0x33, 0xbc, 0xca, 0x5a, 0x85, 0x3e, 0x49, 0x00, 0x89, 0x3d,
  0x96, 0x25, 0x21, 0xbc, 0x9b, 0x2e, 0x96, 0x3e, 0xa0, 0x90, 0xfd, 0x3d,
  0x66, 0x4d, 0x98, 0x3d, 0x41, 0x9a, 0xf7, 0xbc, 0xcf, 0x5b, 0x75, 0xbe,
  0x5f, 0x95, 0x8a, 0xbd, 0x92, 0x69, 0x83, 0xbe, 0x59, 0x31, 0x2b, 0xbe,
  0xbe, 0xd3, 0x0f, 0xbd, 0x34, 0x76, 0x25, 0x3e, 0x73, 0x8e, 0xab, 0xbd,
  0x99, 0x2f, 0x62, 0x3e, 0x55, 0xd4, 0x03, 0xbc, 0x96, 0xe2, 0xde, 0x3b,
  0x74, 0x47, 0x42, 0x3e, 0xd0, 0x1d, 0xee, 0x3c, 0x59, 0xf3, 0x57, 0x3d,
  0x9e, 0xbf, 0x4a, 0xbe, 0x88, 0xae, 0x86, 0x3d, 0x10, 0x44, 0x17, 0xbc,
  0x48, 0x2d, 0xba, 0xbd, 0x47, 0x0d, 0x3e, 0x3e, 0x97, 0x31, 0xe7, 0xbd,
  0xf0, 0x76, 0x36, 0xbe, 0x5a, 0xdd, 0xe8, 0x3a, 0x2d, 0x03, 0x81, 0x3e,
  0x37, 0x03, 0x09, 0xbe, 0x3e, 0x78, 0x2f, 0xbe, 0x23, 0x2e, 0xc6, 0x3c,
  0x06, 0x1e, 0x02, 0x3c, 0xa1, 0xf6, 0xa2, 0x3d, 0x07, 0x3f, 0x2d, 0x3d,
  0x38, 0x36, 0xe9, 0xbc, 0x93, 0x77, 0xcf, 0x3d, 0x6a, 0x49, 0x5d, 0x3d,
  0x14, 0x30, 0x14, 0xbe, 0x90, 0xf9, 0x29, 0x3e, 0x0c, 0xde, 0x3d, 0x3d,
  0xda, 0x75, 0x66, 0x3e, 0x02, 0xb9, 0x95, 0xbe, 0xbc, 0xa8, 0x29, 0x3d,
  0x15, 0xe8, 0x0a, 0xbe, 0xe2, 0x2c, 0x4f, 0xbe, 0x52, 0x83, 0xb3, 0xbd,
  0x7d, 0x24, 0x4d, 0x3e, 0xab, 0x4e, 0x26, 0x3e, 0xd1, 0x13, 0xd4, 0x3d,
  0x72, 0xd1, 0xdc, 0xbc, 0x7e, 0xf6, 0x74, 0x3b, 0x6c, 0xce, 0x04, 0x3e,
  0x7c, 0xe3, 0x00, 0x3e, 0xa8, 0x16, 0x39, 0x3e, 0xe0, 0x98, 0x3d, 0x3d,
  0xa8, 0x78, 0x82, 0xbe, 0x89, 0x2e, 0x70, 0x3e, 0xb4, 0x35, 0x7d, 0x3d,
  0xe7, 0x0a, 0x3e, 0xbe, 0xf4, 0x4e, 0x86, 0x3e, 0xf5, 0xb0, 0x45, 0xbe,
  0xfa, 0xf9, 0x66, 0xbe, 0xf8, 0xc8, 0x15, 0xbe, 0x8f, 0xa8, 0x59, 0xbe,
  0xc4, 0xed, 0x70, 0xbe, 0x68, 0x3a, 0x3b, 0xbe, 0xb6, 0xf2, 0x79, 0x3e,
  0xa1, 0x2d, 0x51, 0xbe, 0x6c, 0xf9, 0x0f, 0xbd, 0xc8, 0x98, 0x71, 0xbd,
  0x99, 0x7a, 0x70, 0x3e, 0x8f, 0x72, 0x0f, 0xbe, 0x1f, 0xf0, 0x97, 0xbc,
  0xb5, 0xbe, 0xd1, 0xbc, 0xc1, 0x72, 0x5b, 0xbe, 0x50, 0xb6, 0x11, 0xbb,
  0x2a, 0x6e, 0x08, 0xbd, 0x26, 0x41, 0x3f, 0x3e, 0x83, 0x03, 0xde, 0xbb,
  0x34, 0xae, 0x7b, 0x3d, 0xb0, 0xe0, 0x38, 0x3d, 0x81, 0xf4, 0x7a, 0x3d,
  0xa8, 0x80, 0xfe, 0xbd, 0xff, 0xb5, 0xdc, 0xbc, 0xb7, 0x4b, 0x73, 0xbe,
  0x9d, 0x3c, 0xf5, 0xbd, 0x06, 0x2e, 0x23, 0x3e, 0xe0, 0x1a, 0x2b, 0xbe,
  0x52, 0x49, 0x9d, 0x3d, 0xe3, 0x71, 0x34, 0x3e, 0xc9, 0xf3, 0x1b, 0xbd,
  0xe2, 0xb2, 0x6f, 0xbe, 0x89, 0xca, 0xec, 0x3d, 0xe7, 0x36, 0x93, 0x3e,
  0xbe, 0xf6, 0x17, 0x3e, 0xbd, 0x03, 0xea, 0x3d, 0x78, 0x09, 0x32, 0x3e,
  0xb5, 0xa8, 0xcc, 0xbd, 0x59, 0x47, 0xe8, 0xbd, 0x69, 0x00, 0xca, 0xbd,
  0x48, 0xe6, 0x79, 0x3e, 0xd3, 0x5b, 0x9a, 0x3d, 0x01, 0x5a, 0x3b, 0x3d,
  0xe6, 0x55, 0x5c, 0xbe, 0x1d, 0xd5, 0xdf, 0x3b, 0xeb, 0xa9, 0x3a, 0x3e,
  0xee, 0x61, 0x6b, 0xbd, 0xb3, 0xde, 0xba, 0x3c, 0x0b, 0x89, 0xbb, 0xbd,
  0xf9, 0xa8, 0xf6, 0xbb, 0x2d, 0xf0, 0x2a, 0x3e, 0x7c, 0x6b, 0x9e, 0xbd,
  0x59, 0x9a, 0x43, 0x3e, 0x96, 0x64, 0xf0, 0x3d, 0x16, 0xf7, 0xe5, 0x3d,
  0xcc, 0xab, 0x8d, 0xbe, 0xf6, 0x41, 0x85, 0x3d, 0xac, 0x4d, 0xe5, 0xbd,
  0x50, 0xad, 0x1a, 0xbe, 0x1e, 0xb6, 0x33, 0x3e, 0x04, 0x72, 0x90, 0xbe,
  0xc9, 0x4a, 0x57, 0xbe, 0x7f, 0x52, 0xa0, 0x3d, 0x30, 0x33, 0x21, 0x3e,
  0xa1, 0x96, 0xe3, 0xbd, 0xe1, 0xe2, 0x3c, 0x3e, 0xa1, 0x09, 0xd2, 0xbd,
  0x4b, 0x5a, 0x06, 0xbe, 0x55, 0x3c, 0x6b, 0x3e, 0x3b, 0xd3, 0x19, 0x3e,
  0xa9, 0x50, 0x0c, 0xbe, 0xda, 0x55, 0x6a, 0x3e, 0xda, 0xcc, 0x10, 0x3e,
  0xac, 0x39, 0x51, 0x3d, 0x7c, 0x3b, 0x82, 0xbe, 0xba, 0xe7, 0xea, 0x3d,
  0xab, 0x99, 0x95, 0xbd, 0xcc, 0x20, 0xae, 0xbc, 0x4b, 0xea, 0x00, 0x3e,
  0xb1, 0x59, 0x32, 0x3c, 0xbf, 0xb4, 0x89, 0xbe, 0x4b, 0x40, 0x10, 0x3e,
  0x19, 0x09, 0xb2, 0xbd, 0xea, 0x43, 0xe8, 0x3c, 0xe5, 0x64, 0x89, 0xbe,
  0xef, 0x87, 0xc2, 0xbd, 0xa6, 0x74, 0x21, 0xbe, 0xae, 0x66, 0x44, 0x3e,
  0x67, 0xa9, 0x57, 0xbe, 0xf4, 0x3f, 0x32, 0x3d, 0xf1, 0x1f, 0x10, 0xbe,
  0xa9, 0x45, 0xc4, 0xbd, 0x7d, 0xce, 0xad, 0x3d, 0x0b, 0x73, 0x72, 0xbe,
  0xf3, 0x38, 0x16, 0x3e, 0x6d, 0x3e, 0x30, 0x3e, 0xf3, 0xf0, 0x78, 0xbe,
  0x18, 0x7b, 0x68, 0xbe, 0xd8, 0x7b, 0x05, 0x3c, 0xa1, 0x3d, 0xeb, 0xbd,
  0xc0, 0x0e, 0x0c, 0xbd, 0xa5, 0x25, 0x21, 0x3e, 0x07, 0x75, 0xe1, 0xbd,
  0x86, 0x53, 0xd3, 0x3d, 0x1b, 0x3a, 0x07, 0xbe, 0x51, 0x69, 0xb5, 0xbd,
  0xe3, 0x7a, 0xbd, 0x3c, 0x81, 0x0e, 0x9b, 0x3d, 0xb8, 0x80, 0x81, 0xbc,
  0xb2, 0x74, 0xc9, 0x3d, 0xf7, 0x64, 0x51, 0x3d, 0xb2, 0x60, 0xf9, 0x3c,
  0x01, 0xc3, 0x0f, 0x3e, 0xe0, 0x05, 0xd7, 0x3d, 0x31, 0xfa, 0x0d, 0x3e,
  0xfc, 0x9a, 0xc8, 0x3c, 0xac, 0xdf, 0x86, 0x3d, 0xff, 0xa4, 0xa4, 0x3d,
  0xbf, 0x8c, 0xe6, 0xbd, 0x13, 0xdd, 0xe5, 0xbd, 0xdf, 0x09, 0x05, 0x3e,
  0xd7, 0xe6, 0x48, 0x3e, 0x6c, 0xb1, 0x40, 0xbe, 0x63, 0x01, 0x12, 0xbe,
  0xbd, 0xd4, 0x51, 0xbe, 0xd7, 0x9f, 0x2f, 0x3d, 0x6c, 0xe0, 0x91, 0x3d,
  0x5e, 0x74, 0x28, 0x3e, 0xd3, 0xc1, 0xd8, 0x3b, 0x08, 0xd6, 0xa8, 0x3c,
  0x0e, 0xff, 0x89, 0xbc, 0x91, 0x25, 0xf6, 0x3d, 0x45, 0x6e, 0x31, 0xbd,
  0xa4, 0x52, 0x2f, 0x3d, 0xd4, 0x30, 0x44, 0x3e, 0x40, 0xe9, 0x58, 0xbe,
  0x6b, 0x49, 0x38, 0x3e, 0x11, 0x76, 0x12, 0x3e, 0x64, 0x76, 0x2b, 0xbe,
  0x50, 0xf8, 0x2f, 0xbd, 0x4c, 0x9c, 0x31, 0xbd, 0x23, 0x05, 0xe5, 0xbd,
  0xf4, 0xdf, 0x3e, 0xbe, 0x87, 0xb0, 0xae, 0x3d, 0x52, 0x63, 0x0d, 0x3e,
  0x7c, 0x94, 0xb1, 0xbd, 0xe2, 0x35, 0xc3, 0x3d, 0x9b, 0xd1, 0x51, 0x3e,
  0x55, 0x4f, 0x1a, 0x3e, 0x62, 0x82, 0x57, 0xbe, 0x8e, 0x40, 0x81, 0x3d,
  0xb9, 0xc0, 0x2d, 0x3e, 0xe8, 0x87, 0x28, 0xbe, 0x56, 0xcc, 0x15, 0xbe,
  0xa9, 0x29, 0x77, 0xbe, 0x0c, 0x5f, 0xa2, 0x3d, 0x28, 0x47, 0x48, 0x3d,
  0xa8, 0x4e, 0xa8, 0xbd, 0x52, 0xd4, 0xef, 0x3d, 0xff, 0xa0, 0xbe, 0x3c,
  0x8d, 0xfe, 0x50, 0x3c, 0x87, 0x7c, 0x49, 0x3c, 0xe4, 0x6e, 0x2f, 0x3c,
  0x05, 0x65, 0xf2, 0xbd, 0xc4, 0x74, 0xab, 0xbc, 0x77, 0xd9, 0x35, 0x3d,
  0xad, 0x2d, 0x20, 0xbd, 0x20, 0xde, 0x29, 0x3c, 0xa2, 0x09, 0x14, 0x3d,
  0xc1, 0xa4, 0x3f, 0xbe, 0x8f, 0xe8, 0x3d, 0xbe, 0x68, 0x11, 0x23, 0xbc,
  0x1d, 0xd2, 0xb1, 0x3d, 0x6a, 0x3a, 0xc6, 0xbc, 0x22, 0xdb, 0xfc, 0xbd,
  0x5a, 0x0b, 0xc5, 0x3d, 0xb3, 0xa6, 0x3b, 0x3e, 0xee, 0x6d, 0xe0, 0xbd,
  0x22, 0x21, 0xc5, 0x3c, 0x77, 0x46, 0x9b, 0xbd, 0xd4, 0xd8, 0x32, 0x3c,
  0x7f, 0xd3, 0x7d, 0x3e, 0x38, 0x57, 0x6b, 0xbe, 0x9a, 0x85, 0x2e, 0x3e,
  0x58, 0x1f, 0xac, 0x3d, 0xc5, 0xb4, 0x15, 0xbe, 0xc5, 0x5e, 0x52, 0x3e,
  0x1f, 0x56, 0x17, 0x3e, 0x8a, 0x6e, 0xc0, 0xbc, 0xee, 0x04, 0x38, 0xbe,
  0x5b, 0x4e, 0xd7, 0x3d, 0x4c, 0x85, 0x15, 0xbe, 0x5e, 0x16, 0xc2, 0x3d,
  0x60, 0x92, 0x84, 0xbe, 0x02, 0xee, 0x47, 0xbe, 0x01, 0x23, 0x5a, 0xbd,
  0x2c, 0x25, 0x66, 0x3e, 0xc3, 0x02, 0xc5, 0xbd, 0x92, 0x41, 0x8a, 0x3e,
  0x5b, 0xca, 0x28, 0x3c, 0x57, 0x23, 0x99, 0xba, 0x45, 0x07, 0x7f, 0x3c,
  0x0a, 0x2c, 0x38, 0x3e, 0x57, 0xc6, 0x44, 0x3e, 0x84, 0xd4, 0x0e, 0xbe,
  0x9e, 0xb1, 0x2b, 0x3e, 0x61, 0xb5, 0xda, 0xbd, 0xf8, 0x7b, 0xdc, 0xbd,
  0x6b, 0xd3, 0x5a, 0x3e, 0x87, 0x30, 0xc0, 0x3d, 0x27, 0x55, 0x89, 0xbd,
  0xad, 0xca, 0xc5, 0x3d, 0x86, 0x46, 0x55, 0xbe, 0x5e, 0x2f, 0x58, 0xbe,
  0xed, 0xef, 0x20, 0xbe, 0x87, 0x45, 0x60, 0x3d, 0x88, 0x4b, 0x41, 0x3e,
  0x17, 0x71, 0x25, 0xbd, 0x83, 0x4f, 0x86, 0x3d, 0xd8, 0x3c, 0x5c, 0x3e,
  0xa0, 0x15, 0x8d, 0x3d, 0x97, 0x7e, 0xd7, 0x3d, 0x8a, 0x3c, 0xf5, 0xbd,
  0xbc, 0x2c, 0x23, 0x3e, 0xec, 0x02, 0x32, 0x3e, 0x62, 0xfc, 0x24, 0xbe,
  0x0b, 0x70, 0x50, 0xbd, 0x73, 0x59, 0x3b, 0xbe, 0x4a, 0x54, 0xd5, 0xbd,
  0x91, 0xf9, 0x00, 0xbe, 0x10, 0x03, 0xb1, 0xbd, 0xdd, 0xd2, 0x32, 0xbe,
  0xd4, 0xe0, 0xeb, 0x3d, 0xfc, 0x48, 0x27, 0x3e, 0x83, 0xaa, 0x81, 0xbe,
  0x75, 0x67, 0xff, 0xbd, 0x6a, 0x94, 0x98, 0x3e, 0x46, 0xd6, 0x41, 0x3c,
  0x39, 0x86, 0x91, 0xbd, 0x9c, 0x88, 0x33, 0xbe, 0x75, 0x9f, 0x5f, 0x3d,
  0x46, 0x99, 0x4e, 0x3e, 0x8b, 0x44, 0x8a, 0xbe, 0xd8, 0x9d, 0xb6, 0x3b,
  0x91, 0x0e, 0x4c, 0xbe, 0xb0, 0x90, 0x96, 0xbe, 0x09, 0xd6, 0x37, 0x3d,
  0x7e, 0xd6, 0x3b, 0xbe, 0x1a, 0x58, 0x8a, 0x3d, 0xc6, 0xa5, 0x90, 0xbd,
  0xba, 0x02, 0x4b, 0x3d, 0x3a, 0x05, 0xd1, 0x3d, 0x44, 0xc1, 0x91, 0xbe,
  0x47, 0x48, 0x3e, 0xbe, 0xe9, 0xd0, 0x32, 0x3e, 0xf3, 0xcb, 0x5b, 0xbe,
  0xcc, 0x89, 0x66, 0x3e, 0x99, 0x57, 0x96, 0x3c, 0xb3, 0x10, 0x87, 0x3d,
  0x6a, 0xe0, 0x0b, 0xbc, 0x2d, 0x5f, 0x31, 0x3e, 0x6a, 0x0b, 0xe2, 0x3c,
  0x9a, 0x8c, 0xf5, 0x3d, 0x43, 0xb2, 0x63, 0xbb, 0x7a, 0x1d, 0x5c, 0x3e,
  0xcc, 0x4b, 0x53, 0xbe, 0x95, 0x81, 0xfe, 0x3d, 0xe9, 0x81, 0xb7, 0xbd,
  0x1b, 0x91, 0x38, 0x3e, 0x7f, 0xb9, 0x2f, 0xbe, 0x08, 0xe5, 0x0a, 0x3e,
  0x5a, 0x06, 0x19, 0x3e, 0x60, 0x62, 0x42, 0x3e, 0xa4, 0x21, 0xa5, 0xbb,
  0x9b, 0x50, 0x06, 0xbe, 0x18, 0xde, 0x8f, 0xbe, 0x57, 0x52, 0xdd, 0xbd,
  0xf6, 0xa3, 0x67, 0x3e, 0xc6, 0xd9, 0x2f, 0xbe, 0x78, 0xde, 0xb8, 0xbd,
  0x11, 0xa1, 0x3b, 0x3e, 0x1e, 0x9e, 0x8b, 0xbd, 0xa1, 0xd9, 0xc8, 0xbd,
  0x7d, 0x53, 0xd5, 0xbd, 0x75, 0xc1, 0x35, 0x3e, 0xda, 0x4a, 0x1c, 0xbe,
  0xda, 0x32, 0x07, 0x3d, 0xe9, 0x56, 0xb4, 0xbd, 0x31, 0x53, 0x8b, 0xbd,
  0x1c, 0xdb, 0x45, 0xbe, 0x9b, 0x4b, 0xd2, 0xbc, 0xdc, 0x43, 0x54, 0x3e,
  0x10, 0x91, 0x7d, 0xbe, 0xfd, 0x62, 0x62, 0xbd, 0xf9, 0xf3, 0x57, 0xbe,
  0xb2, 0xc5, 0x0c, 0x3e, 0xa3, 0xa7, 0xdd, 0xbd, 0x09, 0x8d, 0x03, 0xbe,
  0x9a, 0x9e, 0x3e, 0x3e, 0x0b, 0xf7, 0x51, 0xbe, 0x78, 0x48, 0x76, 0x3e,
  0xd0, 0x74, 0x2a, 0xbe, 0x3c, 0xc7, 0x64, 0x3e, 0xae, 0xf2, 0x47, 0xbe,
  0x8a, 0x6d, 0xb8, 0xbd, 0x8f, 0x5a, 0x6a, 0x3e, 0xd7, 0x56, 0x66, 0xbe,
  0x36, 0xc8, 0xa4, 0x3d, 0x5d, 0xa0, 0x07, 0xbe, 0x01, 0x73, 0xc8, 0xbd,
  0x74, 0x9a, 0x13, 0xbe, 0xae, 0x13, 0x90, 0xbd, 0x8b, 0xf9, 0x28, 0xbe,
  0x74, 0x95, 0x45, 0xbd, 0x96, 0x0f, 0xe2, 0x3b, 0x65, 0x54, 0x0a, 0x3c,
  0x08, 0xd4, 0x20, 0x3e, 0xae, 0xb5, 0x36, 0x3d, 0x74, 0x6d, 0x22, 0x3e,
  0x3a, 0xff, 0x4e, 0x3e, 0xf1, 0x5f, 0x77, 0xbd, 0x5b, 0xab, 0x74, 0xbd,
  0x08, 0x6e, 0x08, 0xbe, 0x1b, 0x0d, 0xc7, 0x3d, 0x2e, 0x95, 0x06, 0xbe,
  0x04, 0x76, 0x67, 0xbe, 0xd2, 0xc9, 0x5d, 0xbd, 0x46, 0xbb, 0x53, 0xbe,
  0x46, 0x1d, 0xeb, 0xbd, 0x4f, 0x63, 0x70, 0x3d, 0x7f, 0x91, 0x20, 0xbe,
  0x47, 0x06, 0x90, 0xbd, 0x3a, 0x52, 0x47, 0x3d, 0x23, 0xd0, 0x4c, 0xbe,
  0x21, 0x2c, 0x6b, 0x3d, 0x1c, 0x3d, 0x71, 0x3d, 0xc2, 0x86, 0x25, 0x3e,
  0x1d, 0xf2, 0x26, 0xbe, 0xfb, 0xf4, 0x19, 0x3e, 0x1a, 0x8d, 0x06, 0x3e,
  0xfc, 0xf3, 0xa9, 0xbd, 0xf3, 0xa8, 0x95, 0xbd, 0x6f, 0x3b, 0x4a, 0x3e,
  0x49, 0x59, 0x5a, 0x3e, 0x83, 0x5b, 0x36, 0xbe, 0x2d, 0xab, 0x0f, 0xbe,
  0x92, 0x45, 0xd3, 0xbd, 0xbb, 0xf9, 0x2c, 0xbe, 0xea, 0x41, 0x74, 0xbd,
  0x98, 0xdf, 0x60, 0x3e, 0xcd, 0x1c, 0x4b, 0xbd, 0x66, 0xc3, 0x55, 0x3d,
  0x1e, 0x05, 0x44, 0x3e, 0x09, 0x15, 0xa6, 0xbd, 0x85, 0xe2, 0x8f, 0x3b,
  0x07, 0x37, 0x21, 0xbe, 0xe9, 0x93, 0x0c, 0x3e, 0x0e, 0x05, 0x41, 0x3a,
  0x12, 0xd0, 0x2f, 0x3e, 0x95, 0xa8, 0x85, 0xbd, 0x50, 0xa7, 0xad, 0x3d,
  0xce, 0x20, 0x87, 0x3e, 0xf0, 0x24, 0x39, 0xbe, 0xed, 0xb6, 0x2c, 0x3e,
  0x41, 0xf9, 0x1f, 0x3e, 0xf9, 0x27, 0xb6, 0xbd, 0xf4, 0x28, 0x76, 0xbe,
  0x08, 0x1d, 0x32, 0x3e, 0xbe, 0xf9, 0x7c, 0x3e, 0x46, 0x29, 0x51, 0x3e,
  0xb1, 0xe4, 0x2c, 0xbe, 0x8f, 0x46, 0x53, 0xbe, 0xa8, 0x3b, 0x24, 0x3e,
  0x9d, 0x7e, 0xa8, 0xbd, 0x4b, 0x19, 0xb6, 0x3d, 0x6b, 0x8f, 0x8f, 0x3b,
  0x92, 0xb2, 0x1e, 0x3e, 0xf4, 0x8b, 0x3d, 0xbd, 0xc6, 0xe3, 0xe5, 0xbd,
  0xc8, 0x16, 0xa8, 0x3b, 0x18, 0xc9, 0x5c, 0x3e, 0x02, 0xd6, 0x3d, 0xbc,
  0x1e, 0x24, 0x37, 0xbe, 0xf4, 0x1c, 0x17, 0x3e, 0x7a, 0x22, 0x1e, 0xbc,
  0xe3, 0x25, 0x76, 0x3e, 0xad, 0x17, 0x1e, 0x3e, 0xf0, 0xc7, 0xe4, 0x3d,
  0x99, 0xf8, 0xdd, 0x3c, 0x6b, 0x9c, 0x88, 0x3e, 0xe7, 0x7f, 0xe6, 0xbd,
  0x51, 0x29, 0x7a, 0x3d, 0x8a, 0xd1, 0x44, 0xbe, 0xb9, 0x42, 0x6d, 0x3e,
  0x45, 0x31, 0x1b, 0xbe, 0xea, 0xf2, 0x2c, 0xbe, 0x7e, 0x1d, 0x57, 0xbb,
  0x37, 0x63, 0x3b, 0x3d, 0xf2, 0x74, 0xf9, 0xbd, 0xba, 0x98, 0xd0, 0x3d,
  0xf0, 0xac, 0x53, 0xbe, 0xc5, 0xbc, 0x4d, 0xbd, 0xb2, 0xea, 0x8c, 0xbe,
  0x27, 0x51, 0x5a, 0xbd, 0xba, 0xa7, 0xd1, 0x3d, 0xea, 0xa7, 0x40, 0x3e,
  0x9b, 0x91, 0x16, 0x3d, 0xc4, 0xb8, 0x3b, 0x3e, 0x21, 0x3a, 0xf9, 0xbd,
  0xda, 0xcf, 0x48, 0xbe, 0xb2, 0x2d, 0x54, 0xbd, 0x1d, 0xc3, 0xf9, 0xbd,
  0xfa, 0x76, 0xc8, 0x3b, 0x29, 0x6d, 0xbe, 0xbd, 0x8a, 0x3b, 0x46, 0xbd,
  0x09, 0xe1, 0xcc, 0xbc, 0xba, 0x21, 0xe5, 0x3d, 0xad, 0x77, 0x35, 0x3e,
  0xc6, 0x32, 0x49, 0xbe, 0xfe, 0x69, 0x55, 0x3c, 0x70, 0x27, 0x70, 0xbc,
  0x76, 0xa9, 0x2e, 0x3d, 0xb1, 0x78, 0x07, 0xbe, 0xdb, 0xa6, 0xea, 0x3b,
  0x9c, 0xf7, 0xfb, 0xbc, 0x17, 0xe6, 0xf9, 0x3d, 0x2c, 0x32, 0xfe, 0xbd,
  0x06, 0x80, 0x32, 0xbe, 0x9b, 0x74, 0xea, 0xbd, 0xfb, 0x8c, 0x44, 0x3e,
  0xe8, 0xda, 0xf3, 0x3a, 0xaa, 0x7f, 0x44, 0xbe, 0x7e, 0x57, 0xe9, 0xbd,
  0x77, 0x85, 0xb9, 0x3d, 0x79, 0x89, 0x59, 0xbe, 0xe9, 0x4a, 0x3b, 0xbe,
  0x8b, 0x66, 0x99, 0xbd, 0x41, 0x47, 0xfa, 0xbd, 0x86, 0x49, 0x87, 0xbe,
  0x14, 0x01, 0x62, 0x3d, 0x18, 0x9f, 0x3d, 0xbe, 0x24, 0x80, 0x3c, 0xbe,
  0xee, 0xf0, 0x83, 0x3e, 0x5e, 0xd1, 0xa0, 0xbe, 0xcb, 0x68, 0xe6, 0x3c,
  0x28, 0x5b, 0x9d, 0x3d, 0x0a, 0xaa, 0x64, 0x3a, 0xd1, 0x2a, 0x5d, 0xbe,
  0x3c, 0xaa, 0x43, 0xbe, 0x2d, 0x5e, 0xb5, 0xbc, 0x79, 0x6b, 0x5e, 0xbe,
  0x56, 0x78, 0x73, 0x3e, 0xc4, 0x95, 0xdf, 0xbd, 0x59, 0x0e, 0x14, 0x3e,
  0xf4, 0x4c, 0x3d, 0x3e, 0x8f, 0x94, 0x30, 0xbe, 0x3c, 0x52, 0xb3, 0xbc,
  0xe8, 0xa3, 0x26, 0x3e, 0xab, 0x79, 0x84, 0x3e, 0x1f, 0x17, 0x29, 0x3e,
  0xf1, 0xdf, 0x02, 0x3e, 0x10, 0x6f, 0x14, 0x3e, 0xdf, 0xf0, 0x13, 0xbd,
  0x27, 0x9f, 0xe8, 0x3d, 0xe3, 0x82, 0x23, 0xbd, 0x1e, 0x6a, 0x07, 0x3e,
  0x1a, 0x58, 0xff, 0xbc, 0xa1, 0x55, 0xe7, 0xbd, 0x2d, 0xed, 0xf8, 0xbd,
  0x75, 0x39, 0xf9, 0xbd, 0x70, 0x51, 0x72, 0xbc, 0x11, 0xfb, 0x54, 0xbe,
  0x52, 0xda, 0x30, 0x3d, 0xe7, 0x00, 0x69, 0x3e, 0x75, 0x1f, 0xbe, 0xbd,
  0x0d, 0xf3, 0x07, 0x3e, 0x6e, 0xd3, 0x90, 0xbe, 0x91, 0x7c, 0x84, 0x3d,
  0x1b, 0xf1, 0x7c, 0xbd, 0x36, 0x93, 0x71, 0x3e, 0x97, 0xc2, 0x8c, 0xbe,
  0xf6, 0x5a, 0x50, 0xbe, 0x4f, 0x05, 0x29, 0x3e, 0xa7, 0x4d, 0x54, 0xbd,
  0x18, 0xf7, 0xd8, 0x3d, 0x79, 0xa3, 0x69, 0xbe, 0x35, 0x24, 0x86, 0x3e,
  0x75, 0x66, 0x0e, 0x3d, 0x4c, 0x59, 0xd2, 0xbd, 0x2c, 0x14, 0x1d, 0xbd,
  0xaa, 0xdc, 0xe5, 0xbd, 0x16, 0xb0, 0xe0, 0x3d, 0xca, 0x16, 0x2e, 0x3e,
  0xdd, 0xc5, 0x4a, 0xbe, 0xed, 0x25, 0x14, 0x3e, 0x62, 0xaa, 0x75, 0x3e,
  0x66, 0x80, 0xab, 0x3d, 0xca, 0x72, 0x94, 0x3e, 0xcf, 0xe6, 0xc8, 0xbd,
  0xaa, 0xb3, 0x37, 0x3e, 0x18, 0x43, 0xba, 0x3d, 0x29, 0x41, 0x17, 0xbe,
  0xd3, 0xf2, 0xf7, 0x3d, 0x69, 0xba, 0x40, 0xbe, 0xfd, 0x54, 0xed, 0x3d,
  0x7b, 0x35, 0xcb, 0xbd, 0x8b, 0x80, 0x76, 0xbd, 0xcb, 0x72, 0x25, 0x3e,
  0x84, 0xa2, 0xc6, 0x3b, 0x1f, 0x96, 0x4d, 0xbe, 0xf0, 0x23, 0x13, 0xbe,
  0xcd, 0x4a, 0x02, 0x3e, 0xc4, 0x72, 0x51, 0xbe, 0xc6, 0xe3, 0x8c, 0xbd,
  0xfd, 0x9e, 0x85, 0x3e, 0x0e, 0xcd, 0x37, 0x3e, 0xea, 0x65, 0xd2, 0xbd,
  0x48, 0x42, 0x5f, 0x3e, 0x53, 0x8c, 0xa7, 0xbc, 0x9e, 0x65, 0xba, 0xbd,
  0xd1, 0xf7, 0x89, 0xbe, 0x88, 0x00, 0x51, 0xbc, 0xa5, 0x07, 0x07, 0xbe,
  0x39, 0x40, 0x78, 0xbe, 0x4a, 0x5d, 0x8b, 0x3d, 0xec, 0x57, 0xc8, 0xbc,
  0xac, 0xf9, 0x79, 0x3d, 0xef, 0x67, 0x2c, 0x3c, 0x33, 0x2f, 0x20, 0x3e,
  0x30, 0x16, 0x15, 0x3e, 0x14, 0x94, 0x7e, 0xbd, 0x36, 0x58, 0x81, 0xbd,
  0x82, 0x41, 0x0a, 0xbe, 0x26, 0xf8, 0x22, 0x3e, 0xa6, 0xde, 0x5a, 0xbe,
  0x7a, 0x53, 0x84, 0x3e, 0x3d, 0x4a, 0x22, 0xbe, 0x7b, 0x07, 0x53, 0xbe,
  0x65, 0xc7, 0xf4, 0xbd, 0xc4, 0x4b, 0x9d, 0xbd, 0x12, 0x51, 0x3f, 0xbe,
  0xd8, 0xb7, 0x5b, 0xbe, 0x0b, 0x65, 0x61, 0xbd, 0xed, 0x4c, 0x5c, 0x3e,
  0xdc, 0x1b, 0xe5, 0x3d, 0xdd, 0xbb, 0x80, 0x3e, 0x66, 0xb6, 0x7b, 0x3e,
  0x7b, 0x50, 0x8e, 0x3c, 0xe9, 0x14, 0x04, 0x3e, 0x30, 0xb0, 0x20, 0x3e,
  0xdd, 0x92, 0x84, 0xbd, 0x46, 0xb0, 0x5a, 0xbe, 0x18, 0x20, 0xe4, 0xbd,
  0x0c, 0x9e, 0x0d, 0x3e, 0x94, 0x58, 0xa1, 0x3d, 0x61, 0xde, 0x54, 0xbe,
  0xdf, 0x7b, 0x87, 0x3d, 0x12, 0x44, 0x8a, 0x3e, 0x6d, 0xbf, 0xf7, 0x3c,
  0x1d, 0x0c, 0x6d, 0x3e, 0xab, 0x67, 0xf1, 0x3d, 0x41, 0xc6, 0x32, 0x3e,
  0x4a, 0xf0, 0xb8, 0x3d, 0x02, 0xe8, 0x6f, 0xbe, 0x7e, 0x0d, 0xfc, 0x3c,
  0x2c, 0x46, 0x47, 0xbe, 0x82, 0x0e, 0x2b, 0xbd, 0xd4, 0xc3, 0x3f, 0x3d,
  0x6a, 0x80, 0xe8, 0x3d, 0x20, 0xf3, 0x88, 0xbc, 0xcd, 0xa3, 0x89, 0x3c,
  0xc4, 0x57, 0x07, 0x3e, 0x08, 0xd5, 0x57, 0xbe, 0xc1, 0x3e, 0xed, 0xbd,
  0xc5, 0xc6, 0x03, 0xbd, 0xf3, 0x91, 0x10, 0xbe, 0xca, 0xb3, 0xf5, 0xbd,
  0x44, 0x9d, 0xca, 0x3d, 0x4b, 0x86, 0x5d, 0x3e, 0x9c, 0xc0, 0x69, 0x3b,
  0x61, 0x42, 0x76, 0xbd, 0xf7, 0x85, 0x80, 0x3d, 0x4a, 0x49, 0x09, 0xbe,
  0xaf, 0x75, 0x3d, 0xbe, 0x19, 0x98, 0x0a, 0x3e, 0x3b, 0x15, 0xfe, 0x3c,
  0xae, 0xc8, 0x14, 0x3e, 0x5c, 0x29, 0x11, 0xbe, 0xb4, 0xf3, 0xa8, 0xbd,
  0xbd, 0xe2, 0x40, 0xbd, 0x2f, 0x93, 0x76, 0x3e, 0xad, 0x45, 0x49, 0x3e,
  0x63, 0x8c, 0x56, 0xbd, 0xf9, 0x0d, 0x8d, 0xbe, 0x44, 0x78, 0xe0, 0xbd,
  0x65, 0x12, 0x57, 0xbe, 0xcf, 0x35, 0x79, 0x3e, 0xb8, 0x53, 0xea, 0xbd,
  0x91, 0xab, 0xb9, 0xbd, 0xef, 0xc0, 0x2b, 0x3e, 0x00, 0x11, 0xe9, 0x3d,
  0x3c, 0x1c, 0xba, 0x3d, 0x33, 0x80, 0xd5, 0x3c, 0xd5, 0x9a, 0xb9, 0xbd,
  0x9c, 0x73, 0xa8, 0xbd, 0x76, 0x93, 0xd0, 0x3d, 0x44, 0x02, 0xfb, 0xbd,
  0x48, 0x74, 0x7d, 0xbe, 0x28, 0x74, 0x95, 0xbe, 0x70, 0x8a, 0xa5, 0x3d,
  0xf5, 0x18, 0x9f, 0x3d, 0xb3, 0xf9, 0xc8, 0x3d, 0x99, 0xc7, 0x3f, 0x3e,
  0x0a, 0xfb, 0xf8, 0xbd, 0x16, 0xec, 0x94, 0x3e, 0x6d, 0xfe, 0xd6, 0x3d,
  0x00, 0x7f, 0x6f, 0xbd, 0xf5, 0x73, 0x8c, 0x3d, 0x34, 0x8e, 0xeb, 0xbd,
  0x40, 0x6c, 0x06, 0x3e, 0xb3, 0x64, 0xfc, 0xbb, 0x5f, 0x9e, 0x25, 0xbe,
  0x45, 0xd2, 0xfc, 0x39, 0x93, 0xa1, 0x06, 0x3e, 0xc5, 0x52, 0x3e, 0xbd,
  0x8f, 0xfa, 0x93, 0x3d, 0xa2, 0x52, 0x1b, 0xbe, 0x47, 0xb0, 0x1a, 0xbe,
  0xc7, 0x54, 0xf3, 0xbd, 0x49, 0xf0, 0x53, 0x3e, 0xf0, 0x1c, 0x43, 0xbe,
  0x08, 0xfb, 0xbd, 0xbc, 0x54, 0x8c, 0x69, 0x3d, 0x1c, 0x40, 0xa7, 0xbb,
  0x51, 0x4b, 0xb6, 0xbc, 0xba, 0xc6, 0x4e, 0xbd, 0xb6, 0xc1, 0xfd, 0x3d,
  0x42, 0xcd, 0x73, 0xbe, 0xd1, 0xa6, 0x20, 0xbe, 0x59, 0x19, 0xee, 0xbd,
  0x22, 0xc8, 0x72, 0xbc, 0x6b, 0x26, 0x5b, 0xbe, 0x05, 0xab, 0x9e, 0x3d,
  0x4b, 0xa8, 0x5f, 0xbe, 0x66, 0x82, 0x67, 0xbe, 0xa8, 0x46, 0x76, 0x3d,
  0x88, 0xb2, 0x28, 0x3e, 0xbe, 0x8c, 0x2e, 0xbe, 0x82, 0x86, 0x35, 0x3e,
  0x2e, 0x02, 0x3a, 0x3c, 0x6b, 0x1d, 0x57, 0xbe, 0xb4, 0x47, 0x2d, 0x3e,
  0x6a, 0x85, 0x23, 0xbe, 0xc1, 0xae, 0x25, 0xbd, 0x48, 0xcc, 0xed, 0x3d,
  0xa3, 0x32, 0xb8, 0x3b, 0x50, 0xf7, 0x63, 0x3e, 0xe1, 0xae, 0x44, 0xbe,
  0xe4, 0x22, 0x45, 0xbd, 0xcc, 0xae, 0x2c, 0x3e, 0x56, 0xfc, 0xc7, 0xbc,
  0x62, 0x4e, 0xd2, 0xbc, 0xea, 0xa9, 0x9e, 0x3d, 0x2f, 0x51, 0x15, 0x3e,
  0x36, 0xd8, 0xa9, 0x3d, 0x9a, 0xa9, 0x2c, 0xbe, 0xd6, 0xd9, 0x85, 0xbd,
  0xe3, 0xd2, 0x1a, 0x3e, 0x8b, 0x33, 0x05, 0xbe, 0x74, 0xdd, 0x83, 0x3e,
  0xc0, 0x75, 0x1e, 0x3d, 0xf6, 0xed, 0x79, 0xbc, 0x8d, 0xa4, 0x2f, 0x3e,
  0x7f, 0x28, 0x55, 0x3e, 0xe3, 0xfe, 0x61, 0xbe, 0x85, 0x33, 0x37, 0x3e,
  0xca, 0x16, 0xc4, 0xbd, 0x9e, 0x7b, 0xac, 0x3d, 0xa6, 0x15, 0x3a, 0xbe,
  0xf0, 0x60, 0xcd, 0xbc, 0x37, 0xe7, 0x66, 0x3e, 0xd1, 0xc9, 0x39, 0xbe,
  0x06, 0xd1, 0x85, 0xbb, 0xf8, 0xc2, 0x1e, 0xbe, 0x44, 0x72, 0x9e, 0x3d,
  0x4e, 0x9e, 0x9b, 0x3d, 0x3a, 0xf5, 0x14, 0x3d, 0x4b, 0x47, 0xea, 0xbb,
  0x4a, 0x36, 0xee, 0x3b, 0xda, 0xff, 0xd1, 0x3d, 0x44, 0xfb, 0xea, 0x3d,
  0x54, 0x1c, 0x21, 0xbe, 0x59, 0x2e, 0x37, 0xbe, 0xb8, 0x33, 0x07, 0x3c,
  0x25, 0xd7, 0x46, 0xbe, 0xbb, 0x4a, 0xdb, 0x3d, 0xe7, 0x7e, 0x9d, 0x3b,
  0x21, 0x51, 0xe5, 0xbd, 0xad, 0x9f, 0x0d, 0x3e, 0xd7, 0x74, 0x50, 0x3d,
  0xdc, 0xfd, 0x2e, 0xbd, 0x75, 0xe6, 0xc3, 0x3d, 0x25, 0x8f, 0xfe, 0xbd,
  0x70, 0xc4, 0x2d, 0x3d, 0x1d, 0x6b, 0x91, 0x3d, 0x72, 0x01, 0x09, 0xbe,
  0xb2, 0x8e, 0x1c, 0x3e, 0xa8, 0x39, 0xcf, 0xbd, 0xbe, 0x15, 0x19, 0x3c,
  0xe0, 0x1a, 0x57, 0x3e, 0xae, 0x27, 0x21, 0xbd, 0xb1, 0xdd, 0xe4, 0xbd,
  0xa9, 0x04, 0x4a, 0x3e, 0x10, 0x46, 0x24, 0xbe, 0xa3, 0x42, 0xc4, 0x3d,
  0xb2, 0xe8, 0x06, 0x3e, 0x2a, 0x8e, 0xef, 0xbd, 0x2b, 0xf2, 0x17, 0x3d,
  0xef, 0xeb, 0x66, 0x3e, 0xba, 0x2e, 0x85, 0xbd, 0x09, 0xfe, 0x23, 0x3d,
  0xef, 0x3e, 0x25, 0x3e, 0x56, 0xb5, 0x60, 0x3e, 0x98, 0x91, 0x8d, 0xbd,
  0xaf, 0x60, 0x2a, 0xbd, 0x68, 0x8b, 0x9a, 0x3d, 0x46, 0xdb, 0xd2, 0x3d,
  0xdd, 0xa5, 0x42, 0xbe, 0xf3, 0xeb, 0x2a, 0xbe, 0xb2, 0xd9, 0xe6, 0xbd,
  0x00, 0xad, 0x3d, 0xbe, 0xe3, 0xdc, 0x19, 0xbe, 0x9c, 0xc0, 0x80, 0xbe,
  0xa7, 0x83, 0x09, 0x3e, 0x72, 0x95, 0x5b, 0xbe, 0x75, 0x7b, 0x8e, 0xbe,
  0x01, 0x8d, 0xe8, 0xbd, 0x79, 0x7f, 0x02, 0xbe, 0x5b, 0x1e, 0x32, 0x3e,
  0x02, 0xc9, 0x6e, 0xbd, 0x37, 0x75, 0x71, 0x3e, 0xc5, 0x03, 0xe1, 0xbb,
  0xae, 0x83, 0x19, 0x3d, 0x63, 0xa1, 0x79, 0xbe, 0x50, 0xa4, 0xaa, 0x3d,
  0xde, 0xb1, 0x22, 0x3e, 0x56, 0xd4, 0x6b, 0xbe, 0x79, 0x36, 0x37, 0xbd,
  0x55, 0x53, 0x34, 0x3e, 0xe5, 0xf9, 0xb5, 0x3d, 0x0c, 0x70, 0x6c, 0xbe,
  0xaa, 0x24, 0x06, 0xbd, 0xca, 0x29, 0x46, 0xbe, 0xc2, 0xf6, 0xfe, 0xbd,
  0x3b, 0xb8, 0x22, 0xbe, 0xe0, 0x02, 0xfe, 0xbc, 0xc7, 0x9a, 0x5f, 0xbe,
  0xc5, 0x35, 0x69, 0xbc, 0xc6, 0x06, 0x43, 0xbd, 0x0a, 0xfb, 0x4f, 0xbe,
  0x37, 0x03, 0x2c, 0x3d, 0x64, 0x73, 0x3c, 0xbe, 0xb0, 0xeb, 0x4f, 0xbe,
  0xcd, 0x13, 0x47, 0xbe, 0x58, 0x13, 0x0f, 0x3e, 0xdb, 0xd9, 0x68, 0x3b,
  0x1f, 0x3e, 0x79, 0xbe, 0x81, 0x91, 0x47, 0xbe, 0xdd, 0x48, 0x16, 0xbe,
  0xf5, 0x9e, 0x38, 0xbe, 0xff, 0x6b, 0x68, 0xbe, 0x16, 0xd1, 0x65, 0xbe,
  0x97, 0x25, 0x98, 0x3d, 0x7f, 0x7e, 0x15, 0x3e, 0xbb, 0x76, 0x34, 0xbd,
  0xcd, 0xce, 0x41, 0xbe, 0x86, 0x0d, 0x6d, 0x3e, 0x73, 0x12, 0x59, 0xbc,
  0x28, 0x15, 0x47, 0xbd, 0x1b, 0x2a, 0x2d, 0x3c, 0x79, 0x95, 0x13, 0xbe,
  0xe0, 0x9c, 0xe1, 0xbd, 0xea, 0x10, 0x39, 0x3e, 0xcf, 0xd2, 0x69, 0xbe,
  0x15, 0x23, 0x8b, 0xbd, 0x07, 0xad, 0xa5, 0x3c, 0xef, 0x5e, 0x5a, 0xbe,
  0x50, 0xf0, 0xcf, 0xbc, 0x29, 0x49, 0xc1, 0xbc, 0x40, 0xe2, 0x27, 0xbe,
  0x11, 0x47, 0x14, 0x3e, 0xcf, 0x03, 0x0c, 0xbe, 0x05, 0x46, 0x12, 0x3e,
  0xce, 0xba, 0x07, 0x3d, 0x76, 0x94, 0xa9, 0xbc, 0x9b, 0xa5, 0x2d, 0xbe,
  0xbe, 0xc2, 0x60, 0xbe, 0x2c, 0x4e, 0x44, 0xbd, 0xbd, 0x24, 0x47, 0xbe,
  0xeb, 0xbb, 0xa2, 0x3d, 0x59, 0xff, 0x46, 0x3c, 0x19, 0xbb, 0x34, 0x3c,
  0x4c, 0x95, 0x4d, 0x3d, 0xc5, 0x92, 0x6b, 0xbe, 0x1f, 0x43, 0x60, 0x3e,
  0xfc, 0x4f, 0xd5, 0x3d, 0x50, 0xa7, 0xed, 0x3d, 0x3f, 0x33, 0x84, 0x3d,
  0xd1, 0x0e, 0x34, 0x3e, 0xfe, 0xd3, 0x1c, 0xbe, 0xe4, 0xd6, 0xb6, 0x3d,
  0xbf, 0xf3, 0xa1, 0xbd, 0xb3, 0xcf, 0x99, 0x3d, 0x77, 0x7e, 0x69, 0xbe,
  0x91, 0x94, 0x6e, 0x3e, 0x67, 0x98, 0x98, 0x3e, 0x71, 0x58, 0xa8, 0x3d,
  0x3b, 0x84, 0xfe, 0x3d, 0x12, 0xab, 0xd4, 0x3d, 0x92, 0x06, 0x3d, 0xbc,
  0xe9, 0xde, 0x55, 0x3e, 0xc0, 0xad, 0x88, 0xbd, 0xcf, 0x71, 0x0a, 0x3e,
  0x8a, 0xe2, 0xbd, 0x3d, 0x70, 0x44, 0x3b, 0xbe, 0x81, 0x73, 0xd2, 0xbd,
  0xa3, 0xfa, 0x04, 0xbe, 0x47, 0x95, 0xcf, 0x3d, 0xef, 0xbe, 0x5f, 0x3e,
  0x81, 0xe8, 0x8d, 0xbe, 0x71, 0x54, 0x96, 0xbe, 0x3c, 0x36, 0x33, 0x3d,
  0x2c, 0x3e, 0x88, 0x3e, 0x08, 0x9f, 0x80, 0x3e, 0x6d, 0xf8, 0x2d, 0x3e,
  0xc0, 0xeb, 0x5f, 0x3e, 0xfd, 0x06, 0xe0, 0x3d, 0x28, 0x98, 0x09, 0xbd,
  0xd8, 0xa3, 0x54, 0xbe, 0xa3, 0xf9, 0xea, 0xbd, 0x6c, 0xcf, 0x19, 0xbd,
  0xe6, 0xd4, 0xb9, 0x3d, 0xcd, 0x27, 0x4d, 0xbe, 0x23, 0x04, 0xd1, 0x3c,
  0x7a, 0x99, 0x8b, 0xbe, 0x85, 0x9c, 0xda, 0x3d, 0xa3, 0x9b, 0x0b, 0xbd,
  0x86, 0x8c, 0x64, 0x3e, 0x15, 0xcf, 0x62, 0xbe, 0x52, 0x87, 0x47, 0x3e,
  0x8f, 0x33, 0x67, 0x3e, 0x93, 0x07, 0xa6, 0xbd, 0xa8, 0x0a, 0x09, 0xbe,
  0x05, 0x02, 0x94, 0x3e, 0xa3, 0x4e, 0x95, 0xbd, 0x30, 0xda, 0x4d, 0x3e,
  0xc7, 0xc5, 0x0f, 0xbe, 0x42, 0x9f, 0x00, 0x3e, 0xa3, 0xb8, 0x84, 0xbe,
  0x15, 0x5e, 0x17, 0xbe, 0xc9, 0x43, 0xac, 0x3d, 0xdb, 0xa6, 0x05, 0x3e,
  0x8b, 0x3a, 0xc0, 0x3d, 0x19, 0x33, 0xd8, 0x3d, 0x53, 0x7d, 0x6b, 0x3e,
  0xf6, 0x90, 0x86, 0x3e, 0x4f, 0xc5, 0xf3, 0xbd, 0x70, 0x3c, 0x2a, 0xbe,
  0xeb, 0x98, 0xdb, 0x3d, 0xa2, 0xce, 0x6f, 0x3c, 0x97, 0x9e, 0x1e, 0xbd,
  0xe4, 0x5d, 0x38, 0x3e, 0xe0, 0x00, 0x86, 0x3e, 0x38, 0xb8, 0xe4, 0xbc,
  0x24, 0xa7, 0x3a, 0x3d, 0x3d, 0xa5, 0x2a, 0x3e, 0xab, 0x89, 0x0f, 0x3e,
  0xca, 0xc0, 0x81, 0x3d, 0xbd, 0x37, 0x59, 0xbc, 0x39, 0xed, 0x7a, 0x3e,
  0x63, 0x80, 0x2a, 0x3e, 0xd0, 0xa9, 0x0c, 0x3e, 0x46, 0x7d, 0xac, 0x3c,
  0xdb, 0x90, 0x85, 0x3e, 0x43, 0xfd, 0x3b, 0x3e, 0x58, 0x18, 0x81, 0x3e,
  0xc6, 0x6a, 0x24, 0xbd, 0xab, 0x25, 0xc4, 0xbd, 0xca, 0x70, 0x86, 0x3e,
  0x29, 0x61, 0x82, 0xbe, 0x2f, 0x74, 0x04, 0x3e, 0x6a, 0xd7, 0x63, 0xbe,
  0x5b, 0x96, 0xf7, 0x3d, 0x38, 0xcc, 0xda, 0xbc, 0x86, 0x01, 0x54, 0xbe,
  0x5a, 0xef, 0x53, 0x3e, 0x70, 0x25, 0xca, 0xbd, 0x89, 0xbe, 0x80, 0xbc,
  0xe7, 0xff, 0x67, 0xbe, 0x62, 0xf0, 0x13, 0xbe, 0x02, 0x92, 0x12, 0xbc,
  0x8b, 0xdd, 0xf8, 0xbd, 0x14, 0x37, 0xa8, 0xbc, 0x98, 0xb5, 0x19, 0xbe,
  0x67, 0x90, 0x6c, 0x3e, 0xca, 0xf5, 0x2f, 0x3e, 0x1b, 0x94, 0x43, 0x3e,
  0x20, 0xd1, 0x4f, 0x3d, 0xee, 0x4f, 0x61, 0xbe, 0xdc, 0xcb, 0x9b, 0x3b,
  0x3a, 0x8d, 0xed, 0x3d, 0x6c, 0x46, 0x77, 0x3e, 0xcc, 0x55, 0x71, 0xbc,
  0x2b, 0xdf, 0xb7, 0x3d, 0x62, 0xeb, 0xf8, 0x3d, 0x35, 0x24, 0x81, 0x3e,
  0x03, 0xad, 0x2d, 0x3e, 0xfa, 0xd4, 0x6f, 0x3d, 0x90, 0x33, 0x8b, 0xbe,
  0x8f, 0xe6, 0xbc, 0xbd, 0xa2, 0xa7, 0xee, 0x3d, 0xdf, 0x5a, 0xd5, 0xbd,
  0x17, 0xdd, 0x0a, 0x3d, 0xac, 0x28, 0x93, 0x3c, 0xbf, 0x89, 0x43, 0xbd,
  0xdb, 0xe8, 0x64, 0xbe, 0x76, 0xa2, 0xef, 0xbc, 0x2b, 0xfb, 0x40, 0xbe,
  0x80, 0x15, 0x42, 0xbd, 0x23, 0x91, 0x20, 0xbe, 0x5d, 0x43, 0xc9, 0x3d,
  0xd4, 0x6b, 0x59, 0x3e, 0x51, 0xee, 0xdb, 0x3d, 0x14, 0x0b, 0x21, 0x3e,
  0x80, 0x91, 0x2c, 0x3e, 0x84, 0x94, 0x2c, 0x3e, 0xc8, 0x93, 0x89, 0xbc,
  0x30, 0xd5, 0x85, 0x3d, 0x6e, 0xca, 0x88, 0xbe, 0xc3, 0xe9, 0xd0, 0x3d,
  0x02, 0x98, 0x12, 0xbe, 0x6e, 0x0a, 0x65, 0x3d, 0x2c, 0xb4, 0x36, 0x3e,
  0x00, 0xe0, 0x0b, 0x3d, 0xfc, 0x94, 0x09, 0xbe, 0x8a, 0xc7, 0x29, 0x3e,
  0x38, 0xb3, 0xec, 0xbd, 0xb9, 0x33, 0xe4, 0x3c, 0x5e, 0xa1, 0xad, 0xbd,
  0x89, 0x15, 0x4b, 0x3d, 0x24, 0xb7, 0x77, 0x3e, 0x34, 0x00, 0x5c, 0x3e,
  0xbf, 0xb7, 0x19, 0x3e, 0xd9, 0xde, 0x44, 0xbe, 0x86, 0x8c, 0x6b, 0xbe,
  0x97, 0x54, 0xc2, 0xbd, 0x63, 0x02, 0xd3, 0xbd, 0x52, 0x75, 0x16, 0x3e,
  0x0b, 0xd0, 0x0d, 0x3c, 0xf7, 0xf7, 0x46, 0x3e, 0x3d, 0x46, 0x52, 0x3d,
  0xc6, 0x7c, 0x61, 0x3e, 0x9b, 0x81, 0xab, 0xbb, 0x22, 0xbc, 0x3b, 0x3e,
  0xfd, 0x64, 0x41, 0x3b, 0x4b, 0x55, 0xd3, 0xbd, 0x50, 0x39, 0x0b, 0xbe,
  0xd0, 0xf7, 0x62, 0x3e, 0xee, 0xcf, 0x25, 0xbe, 0xa3, 0xf2, 0x19, 0xbe,
  0x78, 0x77, 0x36, 0x3d, 0xdc, 0x81, 0x3c, 0x3e, 0x0a, 0x51, 0x54, 0x3d,
  0xa6, 0x3c, 0x3e, 0xbe, 0x4d, 0x3b, 0x29, 0xbe, 0xe7, 0xe0, 0x1d, 0x3e,
  0x59, 0x09, 0x7e, 0xbd, 0x3f, 0xb1, 0xdc, 0xbd, 0xef, 0x83, 0x01, 0xbd,
  0x8d, 0x7e, 0x94, 0x3d, 0xaa, 0x6e, 0x02, 0x3e, 0xb9, 0x5c, 0x88, 0xbe,
  0x4e, 0x43, 0x07, 0xbd, 0x00, 0x5c, 0xce, 0x3c, 0xc1, 0x42, 0x1d, 0x3e,
  0x79, 0x6c, 0x03, 0xbe, 0x42, 0xf6, 0xfd, 0xbd, 0xa5, 0x08, 0x20, 0xbe,
  0xbb, 0x30, 0xad, 0x3d, 0x20, 0xa9, 0x08, 0x3e, 0x0e, 0xb0, 0xbc, 0xbd,
  0x00, 0x9a, 0x3e, 0x3d, 0x72, 0x06, 0x79, 0x3e, 0x2a, 0xc2, 0x24, 0x3c,
  0xe9, 0xd0, 0xa7, 0x3d, 0xae, 0x59, 0x8e, 0xbe, 0xbb, 0xca, 0x33, 0xbe,
  0x17, 0x90, 0xb2, 0x3d, 0xc2, 0x2a, 0x54, 0x3c, 0x9c, 0x92, 0xc3, 0x3d,
  0xbf, 0x5a, 0xde, 0xbd, 0x1c, 0xfe, 0x5b, 0x3c, 0xcd, 0xd8, 0xc1, 0x3d,
  0x2e, 0xb5, 0xb9, 0xbd, 0xdc, 0x2e, 0x1d, 0xbe, 0xbd, 0xe1, 0x89, 0xbe,
  0x61, 0xe2, 0x3b, 0xbe, 0xf9, 0x14, 0x52, 0xbe, 0x95, 0x93, 0x3e, 0xbe,
  0x02, 0x12, 0x78, 0xbe, 0x6d, 0x52, 0x39, 0x3d, 0xa8, 0xe9, 0x43, 0x3e,
  0xa9, 0x35, 0x1f, 0x3e, 0xe0, 0xbc, 0x75, 0x3e, 0xe1, 0x61, 0xc2, 0x3d,
  0xa6, 0xe6, 0x07, 0x3e, 0x67, 0xf0, 0xd8, 0x3c, 0x51, 0xd9, 0x2d, 0xbd,
  0x75, 0xa2, 0x1f, 0xbe, 0xa2, 0x73, 0x18, 0x3e, 0xa7, 0xd7, 0x90, 0xbd,
  0xd9, 0x22, 0x34, 0xbd, 0x0b, 0x09, 0x7b, 0xbe, 0x66, 0x78, 0x7c, 0x3d,
  0x77, 0xa1, 0x57, 0xbe, 0x81, 0x9a, 0x41, 0xbe, 0xb9, 0x97, 0xbb, 0xbd,
  0xe2, 0xdd, 0x89, 0x3c, 0x82, 0xe4, 0x0c, 0x3d, 0xa1, 0xa5, 0x01, 0xbe,
  0xec, 0x4d, 0x92, 0x3d, 0x5a, 0x65, 0x81, 0xbe, 0xc1, 0x69, 0x81, 0xbd,
  0xad, 0xf9, 0x3e, 0xbe, 0x13, 0xb3, 0x95, 0x3d, 0x9e, 0x99, 0x89, 0xbe,
  0xae, 0x37, 0xb5, 0x3d, 0x06, 0xbc, 0xd7, 0x3d, 0x2f, 0xd0, 0x6f, 0xbd,
  0xbc, 0x80, 0x0a, 0x3e, 0x64, 0xf9, 0x60, 0x3e, 0x4a, 0xc0, 0x4d, 0xbe,
  0x3d, 0xde, 0x25, 0xbe, 0x21, 0xed, 0x33, 0xbb, 0xc2, 0xbb, 0x68, 0xbd,
  0x53, 0x99, 0x17, 0xbd, 0x1a, 0xa7, 0x61, 0xbd, 0x09, 0x0f, 0x10, 0xbd,
  0xf9, 0x5b, 0x41, 0x3d, 0x98, 0x70, 0x3a, 0x3e, 0x2d, 0x5a, 0xca, 0x3d,
  0x4f, 0x1b, 0x83, 0x3e, 0xdd, 0x36, 0x66, 0x3e, 0x83, 0x36, 0xab, 0x3d,
  0x29, 0x02, 0xb5, 0xbd, 0x57, 0x6c, 0x33, 0x3e, 0xac, 0xd8, 0x01, 0xbe,
  0x78, 0x9c, 0x2d, 0xbe, 0xee, 0x14, 0x3e, 0x3e, 0xd1, 0x09, 0xb8, 0xbd,
  0x59, 0xad, 0x5e, 0xbd, 0x01, 0x89, 0x0c, 0xbe, 0x7b, 0x28, 0x13, 0x3e,
  0x78, 0xe0, 0x1f, 0xbe, 0xd5, 0xa0, 0x3a, 0xbe, 0xb5, 0xeb, 0x44, 0x3e,
  0x8a, 0xa9, 0xa9, 0x3d, 0xe6, 0x0e, 0xa6, 0xbd, 0x4c, 0xca, 0xe3, 0x3d,
  0x0c, 0x09, 0x2f, 0x3d, 0x4a, 0xf8, 0x8f, 0x3d, 0xa4, 0x2c, 0x81, 0xbd,
  0xb5, 0xa3, 0x22, 0x3e, 0xc9, 0xfa, 0xd3, 0x3d, 0x4d, 0x9e, 0x92, 0xbd,
  0x62, 0x9d, 0xcc, 0x3d, 0x30, 0xa0, 0x3c, 0x3e, 0x5b, 0xa5, 0x1e, 0xbe,
  0x68, 0xe8, 0x52, 0x3e, 0xee, 0x50, 0x37, 0x3e, 0xf4, 0x94, 0x3f, 0x3e,
  0xad, 0xc2, 0x1f, 0x3e, 0x88, 0x52, 0xec, 0xbc, 0x7d, 0x64, 0x8c, 0xbd,
  0x3f, 0xd9, 0x19, 0x3e, 0x55, 0x41, 0xb8, 0xbd, 0x1a, 0x12, 0xb3, 0xbd,
  0x67, 0xc5, 0xeb, 0x3d, 0x5f, 0xf8, 0xa8, 0x3c, 0x99, 0xbf, 0x50, 0x3d,
  0xb2, 0x12, 0x59, 0xbe, 0x55, 0x88, 0x35, 0xbe, 0x38, 0xd8, 0xaa, 0x3d,
  0xaa, 0x98, 0xd7, 0x3d, 0xaf, 0x89, 0x9e, 0xbb, 0xcc, 0x6c, 0x39, 0xbd,
  0x4a, 0xff, 0xfb, 0xbd, 0x51, 0x95, 0x6a, 0x3e, 0x4f, 0xc4, 0x67, 0x3d,
  0x29, 0x64, 0xb3, 0xbd, 0xdf, 0xa4, 0x52, 0x3d, 0x1d, 0x37, 0x14, 0xbe,
  0x01, 0xc8, 0xa4, 0x3b, 0xaa, 0xa5, 0xb1, 0x3d, 0x80, 0xdb, 0xff, 0xbc,
  0xd9, 0xf3, 0xcc, 0x3d, 0xbc, 0xd5, 0x25, 0xbd, 0x9c, 0xf1, 0x2f, 0x3e,
  0xda, 0xa4, 0x0e, 0x3d, 0x60, 0x84, 0xfd, 0x3d, 0x9f, 0x73, 0xb3, 0x3d,
  0x41, 0x72, 0x38, 0xbe, 0xc2, 0x87, 0x49, 0xbe, 0x0a, 0x9a, 0xbe, 0x3d,
  0x9a, 0xd3, 0xb4, 0x3d, 0xd3, 0x76, 0xbc, 0x3d, 0x1e, 0xf3, 0x87, 0xbe,
  0xa8, 0xc1, 0x9f, 0x3d, 0xf4, 0x0d, 0x37, 0x3c, 0x50, 0xb5, 0x0c, 0xbe,
  0x1b, 0xdf, 0x42, 0xbe, 0x0b, 0x91, 0x48, 0x3e, 0xc8, 0xb1, 0x60, 0x3e,
  0xdf, 0x86, 0xe9, 0x3d, 0x37, 0x4c, 0x1e, 0xbe, 0x54, 0x38, 0xe9, 0xbd,
  0x6e, 0x59, 0x0f, 0xbe, 0x96, 0xf5, 0xa0, 0xbc, 0x8b, 0x11, 0x05, 0x3c,
  0x12, 0xf6, 0x0f, 0xbe, 0x3f, 0xe6, 0x27, 0xbe, 0x4d, 0xa6, 0x2a, 0xbb,
  0xc4, 0x7a, 0x42, 0xbe, 0x82, 0x40, 0xaf, 0x3c, 0x97, 0xd1, 0x18, 0x3e,
  0xf9, 0x99, 0x0f, 0xbe, 0x4c, 0x32, 0xd8, 0xbd, 0x32, 0x74, 0x47, 0x3c,
  0x6e, 0xa0, 0x24, 0x3e, 0xe1, 0x58, 0x16, 0xbc, 0xf8, 0x95, 0xab, 0xbd,
  0x8e, 0x19, 0x86, 0x3c, 0xda, 0xbf, 0xd5, 0x3d, 0x64, 0xe2, 0xfe, 0xbc,
  0xc0, 0xa9, 0x84, 0x3d, 0xf6, 0xcf, 0x9e, 0xbd, 0xd7, 0xa1, 0x96, 0xbc,
  0xf6, 0xc9, 0x7e, 0xbe, 0x3f, 0xaf, 0x26, 0xbd, 0xe0, 0x85, 0x66, 0xbe,
  0xe5, 0x34, 0x39, 0xbe, 0xe4, 0x0b, 0x4c, 0x3e, 0x0d, 0xdf, 0x04, 0xbe,
  0x6f, 0x58, 0x14, 0xbe, 0x6b, 0x53, 0x95, 0xbd, 0x9f, 0xee, 0x19, 0xbe,
  0x91, 0x99, 0x23, 0x3b, 0xc2, 0x9c, 0xf9, 0xbd, 0x5f, 0x92, 0x1a, 0x3e,
  0x75, 0x20, 0x20, 0xbd, 0xd0, 0x24, 0xe0, 0x3d, 0x43, 0xbd, 0xab, 0x3d,
  0xce, 0xa5, 0x31, 0x3e, 0xc7, 0x1d, 0x78, 0x3e, 0xf2, 0x3f, 0x39, 0x3e,
  0xc0, 0x90, 0xee, 0x3d, 0xd5, 0x2e, 0x8c, 0x3e, 0x68, 0xe7, 0xf4, 0x3c,
  0xd1, 0xae, 0x23, 0xbe, 0x15, 0xc1, 0x80, 0x3e, 0x31, 0x35, 0x9a, 0xbc,
  0xa9, 0x53, 0xa7, 0x3d, 0xba, 0x3a, 0xca, 0x3a, 0x3a, 0x9d, 0x4a, 0xbe,
  0xeb, 0x69, 0xa0, 0x3d, 0xed, 0x2c, 0xd5, 0xbd, 0x78, 0xb3, 0x46, 0xbd,
  0x86, 0x25, 0x85, 0x3e, 0xf6, 0x9a, 0x4d, 0xbd, 0xa5, 0x75, 0x03, 0x3e,
  0x91, 0x28, 0x12, 0x3e, 0x30, 0x74, 0x86, 0xbc, 0x47, 0x81, 0xba, 0xbd,
  0x42, 0x0b, 0x36, 0xbe, 0x97, 0x5e, 0x7e, 0xbb, 0xb7, 0x1d, 0xbf, 0xbd,
  0x61, 0x09, 0xf8, 0xbc, 0x6a, 0x6c, 0x98, 0xbd, 0xa1, 0x94, 0xdd, 0xb9,
  0xd2, 0x3a, 0x41, 0xbe, 0x0e, 0x39, 0x31, 0xbe, 0xc9, 0x7c, 0x03, 0x3e,
  0xf7, 0x6d, 0x7f, 0x3c, 0xf1, 0x50, 0xae, 0xbd, 0x6d, 0x1c, 0x79, 0xbe,
  0x14, 0xc4, 0x6f, 0xbe, 0x56, 0x9f, 0x7a, 0xbe, 0x5c, 0x59, 0x1b, 0x3e,
  0x16, 0x8c, 0x8b, 0xbe, 0xd3, 0x42, 0xd7, 0x3d, 0x1b, 0xa8, 0x8d, 0x3c,
  0xb8, 0x24, 0x87, 0x3d, 0x46, 0x03, 0x24, 0xbe, 0x53, 0xe7, 0x1e, 0x3c,
  0x84, 0xe4, 0x0d, 0xbe, 0x98, 0xb6, 0x5f, 0xbb, 0xf7, 0x9a, 0x82, 0x3d,
  0x43, 0x43, 0x5b, 0x3e, 0x7c, 0x54, 0x35, 0x3e, 0x42, 0xa2, 0x11, 0xbe,
  0xe4, 0x27, 0x69, 0xbe, 0xfb, 0x34, 0x24, 0xbd, 0x6b, 0x3e, 0xe2, 0xbd,
  0x95, 0x95, 0x3b, 0xbd, 0x29, 0xc2, 0xb6, 0xbd, 0x1e, 0xcb, 0x2d, 0xbe,
  0xcb, 0x6d, 0x38, 0x3d, 0x60, 0x6a, 0xa5, 0xbd, 0xa5, 0x36, 0xbb, 0x3c,
  0x5e, 0x24, 0x8d, 0x3b, 0xaa, 0x24, 0x03, 0xba, 0x80, 0xcb, 0x2a, 0x3e,
  0xfa, 0x0a, 0x75, 0x3d, 0x68, 0xb9, 0xab, 0x3d, 0xc9, 0x3c, 0xd8, 0xbd,
  0x5b, 0xb7, 0x28, 0xbe, 0xbe, 0xd8, 0x3f, 0xbd, 0xdc, 0x07, 0x6e, 0xbe,
  0xf8, 0xf9, 0x9d, 0xbe, 0xa2, 0xcc, 0x5a, 0xbe, 0x2d, 0x1d, 0xf7, 0x3d,
  0x6e, 0x3d, 0x13, 0x3d, 0xec, 0x59, 0x26, 0x3d, 0xc0, 0x0a, 0x9d, 0xbe,
  0xdf, 0xb6, 0xf0, 0x3d, 0xc2, 0x08, 0x4f, 0x3e, 0x09, 0x4c, 0x5c, 0x3d,
  0x0f, 0x05, 0xb9, 0x3d, 0x6f, 0x52, 0x5f, 0xbc, 0xb0, 0x34, 0x22, 0x3e,
  0x91, 0xe4, 0x61, 0xbd, 0xe8, 0xed, 0x4e, 0xbb, 0xa3, 0x51, 0x1e, 0xbe,
  0xb2, 0x49, 0x88, 0xbd, 0xbc, 0x67, 0x2e, 0xbe, 0x2f, 0x4a, 0x3d, 0xbd,
  0xf9, 0x81, 0x28, 0xbe, 0x34, 0x90, 0x26, 0xbe, 0x10, 0x03, 0xa7, 0xbd,
  0x4c, 0x99, 0x44, 0xbd, 0x3b, 0xc6, 0x42, 0x3e, 0xe8, 0xe5, 0xfa, 0x3d,
  0x04, 0xf7, 0x5e, 0x3c, 0xb4, 0x66, 0x87, 0xbd, 0x57, 0x6b, 0x39, 0x3e,
  0x8c, 0xb4, 0x4b, 0xbc, 0xe0, 0x84, 0x49, 0xbe, 0xce, 0xda, 0x4f, 0x3e,
  0x15, 0x75, 0x07, 0xbe, 0x7c, 0xb3, 0x5c, 0xbe, 0xf2, 0xbb, 0xaa, 0xbc,
  0x95, 0x33, 0x29, 0x3d, 0xf5, 0x0f, 0x2e, 0xbe, 0xa3, 0x78, 0x84, 0x3e,
  0xd9, 0xed, 0x83, 0xbc, 0x05, 0x2c, 0x31, 0x3e, 0x18, 0xed, 0x3b, 0xbe,
  0x7b, 0xaf, 0x12, 0xbe, 0x24, 0x49, 0xd9, 0x3b, 0x03, 0x0a, 0xfe, 0x3d,
  0x4a, 0x4c, 0x27, 0x3e, 0x9d, 0x9a, 0x68, 0x3e, 0x44, 0xcc, 0x08, 0x3e,
  0xc2, 0x6c, 0x14, 0x3e, 0x18, 0xb4, 0xa5, 0xbd, 0x21, 0x41, 0xac, 0xbd,
  0x11, 0x2b, 0x45, 0x3e, 0x40, 0x7b, 0xad, 0x3d, 0x76, 0x23, 0x8d, 0x3c,
  0x56, 0x33, 0xaa, 0xbd, 0x12, 0x1b, 0x56, 0xbe, 0xa1, 0xcd, 0x94, 0xbe,
  0xae, 0xef, 0x90, 0xbe, 0xf6, 0x02, 0x10, 0x3d, 0x33, 0xbe, 0x5d, 0x3e,
  0xc6, 0xda, 0x58, 0xbd, 0x25, 0x5b, 0x2f, 0xbe, 0x47, 0x0a, 0x74, 0xbe,
  0xd4, 0x6d, 0x5e, 0xbe, 0xdd, 0x60, 0xe6, 0xbd, 0x8a, 0x4f, 0x85, 0xbd,
  0xb7, 0x8b, 0xa7, 0xbc, 0x84, 0x9f, 0x02, 0xbe, 0x38, 0x3e, 0xa5, 0x3d,
  0xb3, 0xc6, 0xcf, 0xbc, 0x58, 0xc3, 0x70, 0x3c, 0x24, 0x2d, 0x94, 0x3d,
  0x3b, 0x4a, 0xe9, 0xbd, 0x22, 0xd7, 0x8d, 0x3e, 0x6d, 0xb1, 0x7c, 0x3e,
  0x1e, 0xd2, 0x9e, 0x3d, 0xb0, 0x88, 0x41, 0x3e, 0xc0, 0x48, 0x30, 0x3e,
  0x7a, 0x90, 0x1e, 0x3d, 0xe3, 0x7b, 0x41, 0xbe, 0x57, 0x63, 0xb4, 0x3d,
  0x94, 0xe5, 0x3c, 0x3e, 0xe1, 0x20, 0x4a, 0xbe, 0x99, 0x7b, 0x5a, 0x3e,
  0xfe, 0x2e, 0x5a, 0xbe, 0xaa, 0x40, 0x28, 0xbe, 0x43, 0x7f, 0x29, 0x3e,
  0x0d, 0x4c, 0x33, 0xbc, 0x9c, 0x03, 0x13, 0x3e, 0x58, 0xc7, 0x63, 0x3e,
  0x4a, 0xe6, 0xad, 0xbd, 0x71, 0xdd, 0x12, 0xbe, 0x29, 0x59, 0x8e, 0x3c,
  0x34, 0x27, 0xdd, 0xbd, 0xef, 0x17, 0xe0, 0xbc, 0xf3, 0x23, 0xe9, 0xbd,
  0xd0, 0xb2, 0x14, 0xbe, 0x0c, 0xf6, 0xd8, 0xbd, 0x1f, 0x51, 0x12, 0x3e,
  0xde, 0x9c, 0xb4, 0x3d, 0x43, 0xb8, 0x4f, 0xbe, 0xef, 0xac, 0x97, 0x3d,
  0xa6, 0x7d, 0xb0, 0x3c, 0x89, 0xe6, 0xca, 0xbc, 0x1d, 0xb2, 0x64, 0xbe,
  0xea, 0xc5, 0x18, 0x3e, 0xae, 0xfb, 0x00, 0x3e, 0xea, 0x76, 0xf6, 0xbb,
  0x59, 0xa8, 0xfe, 0x3b, 0xf2, 0xd7, 0xa7, 0xbc, 0x9c, 0x33, 0x93, 0xbd,
  0x8e, 0x0c, 0x15, 0x3e, 0x2f, 0x56, 0x4e, 0x3c, 0xe9, 0x07, 0x90, 0x3d,
  0xfd, 0x37, 0xd3, 0xbd, 0xba, 0xa3, 0x43, 0x3b, 0xba, 0x9a, 0x42, 0xbd,
  0xdb, 0xe9, 0x2f, 0xbe, 0x53, 0x73, 0x1f, 0x3e, 0xc9, 0xf7, 0x3b, 0xbd,
  0x0e, 0x2e, 0x14, 0x3e, 0xc3, 0xed, 0xec, 0x3d, 0x0a, 0xc7, 0x01, 0x3e,
  0xc2, 0xa6, 0x6a, 0x3e, 0xf3, 0x09, 0x6f, 0xbe, 0x5f, 0x23, 0x62, 0x3e,
  0x0e, 0xd7, 0x6c, 0xbe, 0x2b, 0x92, 0x09, 0xbe, 0x92, 0xca, 0x5e, 0xbe,
  0x5f, 0x52, 0x62, 0xbe, 0x86, 0x1d, 0x5e, 0x3d, 0x3f, 0x73, 0x40, 0x3d,
  0x0b, 0x7d, 0x2b, 0xbe, 0xb1, 0xb3, 0xc4, 0x3c, 0x1f, 0x84, 0xb3, 0x3d,
  0x54, 0x55, 0xb6, 0x3d, 0x67, 0xbf, 0xed, 0x3d, 0x46, 0x11, 0xaf, 0xbd,
  0xb2, 0x67, 0xc8, 0xbd, 0xcc, 0x7a, 0xa9, 0xbb, 0x5b, 0x3f, 0xd8, 0x3d,
  0x7a, 0x25, 0x2b, 0x3e, 0x0a, 0xae, 0x64, 0xbe, 0x17, 0x86, 0xe0, 0x3d,
  0x0e, 0x9a, 0xd0, 0x3d, 0xab, 0xbd, 0x2b, 0x3e, 0xe4, 0x6d, 0x1d, 0x3e,
  0xbe, 0xc5, 0x49, 0xbe, 0xc1, 0xc6, 0xfc, 0xbd, 0xfa, 0xcb, 0x1f, 0xbd,
  0x6f, 0x93, 0x34, 0xbe, 0x26, 0xd7, 0x97, 0xbd, 0x3e, 0x62, 0x7c, 0xbd,
  0xde, 0x27, 0x54, 0xbd, 0x24, 0x10, 0x1f, 0xbe, 0x1d, 0x82, 0x17, 0x3d,
  0x1b, 0x9a, 0x41, 0xbe, 0x63, 0xe6, 0x58, 0x3e, 0xfc, 0xbb, 0x3c, 0xbe,
  0x17, 0xff, 0x9e, 0x3d, 0xfe, 0x5e, 0x51, 0x3d, 0xee, 0x1f, 0x96, 0xbe,
  0x47, 0x51, 0x6e, 0x3e, 0x2a, 0x07, 0x49, 0xbe, 0x7e, 0xb2, 0x90, 0xbd,
  0x4b, 0x5a, 0x9a, 0x3e, 0x98, 0xc5, 0x8e, 0xbe, 0xb7, 0x58, 0x95, 0x3e,
  0x90, 0x11, 0xcb, 0xbd, 0x38, 0xa8, 0x56, 0x3d, 0xd8, 0x32, 0xcf, 0x39,
  0xdc, 0x35, 0x18, 0xbe, 0x1f, 0xfa, 0xf5, 0xbc, 0x23, 0x8f, 0xf7, 0x3d,
  0x63, 0xdf, 0x8b, 0xbd, 0xe1, 0xbb, 0x12, 0x3e, 0x7f, 0x3e, 0x27, 0xbd,
  0x6b, 0xfe, 0xda, 0xbd, 0xb3, 0x83, 0x44, 0x3e, 0xa3, 0x2c, 0x17, 0x3d,
  0x28, 0xc6, 0x74, 0xbe, 0xd9, 0xa5, 0xb6, 0xbd, 0x67, 0x0d, 0xf5, 0x3b,
  0xb8, 0x4a, 0x92, 0x3e, 0xc2, 0x33, 0xbe, 0xbd, 0x02, 0xf0, 0xd7, 0xbc,
  0xdd, 0xd5, 0x88, 0xbd, 0x49, 0xa8, 0x74, 0xbe, 0x32, 0x02, 0x59, 0x3d,
  0x3b, 0xa2, 0x83, 0x3d, 0x1a, 0x86, 0x82, 0x3d, 0xfd, 0x33, 0x52, 0x3e,
  0x0c, 0x58, 0x45, 0x3e, 0xa6, 0x45, 0xcb, 0xbd, 0x9d, 0xcf, 0x05, 0x3c,
  0x42, 0x98, 0x25, 0xbe, 0x1e, 0x63, 0x32, 0xbd, 0xfc, 0x8a, 0x10, 0xbe,
  0x86, 0xd3, 0xa7, 0x3d, 0x23, 0x56, 0x49, 0xbe, 0xd9, 0x6d, 0xd8, 0xbc,
  0x07, 0xf5, 0xa4, 0x3c, 0x8b, 0x5c, 0x00, 0xbe, 0x47, 0x6a, 0x56, 0x3e,
  0x04, 0x75, 0x02, 0xbc, 0x1c, 0xb7, 0x72, 0x3d, 0xd0, 0x63, 0x14, 0xbe,
  0x55, 0xdc, 0xa2, 0x3c, 0x21, 0x47, 0x75, 0xbd, 0x4e, 0x8b, 0x32, 0xbe,
  0x76, 0x98, 0x41, 0xbe, 0x24, 0x64, 0x71, 0xbe, 0xcd, 0x2a, 0x58, 0xbe,
  0xcb, 0xe3, 0x0a, 0xbe, 0x22, 0x3c, 0xae, 0x3d, 0x50, 0x92, 0x11, 0xbd,
  0x26, 0xd8, 0x05, 0x3e, 0x22, 0x9c, 0x24, 0xbd, 0x5b, 0x0d, 0xc8, 0xbd,
  0xb1, 0x51, 0x2b, 0x3e, 0x74, 0xca, 0x8e, 0xbd, 0x5c, 0x19, 0x54, 0xbe,
  0x60, 0xa6, 0xf8, 0x3c, 0x19, 0x46, 0xa9, 0x3d, 0x25, 0x71, 0xee, 0xbc,
  0xc2, 0xfd, 0x68, 0xbe, 0xff, 0xc1, 0x4f, 0x3e, 0xe6, 0x5e, 0x98, 0xbd,
  0x28, 0xe3, 0xd2, 0x3c, 0xcf, 0x56, 0x14, 0x3d, 0xd1, 0xe7, 0x3e, 0xbd,
  0x38, 0x60, 0x2a, 0x3e, 0x8d, 0xbb, 0xb7, 0x3c, 0xc8, 0xf1, 0xd1, 0x3d,
  0xab, 0x35, 0xed, 0x3d, 0x7d, 0x64, 0x37, 0x3d, 0xb1, 0x81, 0x3c, 0x3e,
  0xf3, 0x83, 0x67, 0xbe, 0xed, 0x0c, 0x12, 0xbd, 0xf3, 0xc8, 0xf8, 0x3d,
  0x73, 0x13, 0xd0, 0xbb, 0xab, 0xb0, 0x55, 0xbe, 0x1d, 0xf9, 0x5e, 0x3d,
  0x98, 0x8a, 0x50, 0xbe, 0x25, 0xac, 0x97, 0x3d, 0x5b, 0xac, 0x28, 0xbe,
  0x34, 0x2d, 0x32, 0xbe, 0xd8, 0xd1, 0x3d, 0xbe, 0xcc, 0xf4, 0x3b, 0xbe,
  0xb5, 0xf4, 0x6b, 0x3d, 0x3a, 0x38, 0xb0, 0xbc, 0xf6, 0x8b, 0x3b, 0xbc,
  0x93, 0xdb, 0x51, 0x3e, 0xb8, 0xfd, 0x53, 0xbe, 0x74, 0x44, 0x35, 0x3d,
  0xc9, 0x2f, 0x87, 0x3d, 0xf9, 0x30, 0xac, 0xbd, 0x94, 0x95, 0xe6, 0x3d,
  0xa0, 0x42, 0x4d, 0xbc, 0x8b, 0x81, 0x39, 0x3e, 0x25, 0x1e, 0x13, 0x3d,
  0x8f, 0x41, 0x17, 0xbd, 0xfd, 0x39, 0xb5, 0x3d, 0x87, 0x6b, 0x5a, 0xbe,
  0x4f, 0xe1, 0x6d, 0xbe, 0x06, 0x86, 0x53, 0x3e, 0x0a, 0x52, 0x47, 0x3e,
  0x8b, 0x5c, 0x44, 0xbe, 0xda, 0x8a, 0xe3, 0x3c, 0x6d, 0x48, 0x56, 0x3e,
  0x00, 0xed, 0xa6, 0x3d, 0x7a, 0x6c, 0x42, 0xbe, 0x00, 0x1d, 0x85, 0x3d,
  0x57, 0x2a, 0x60, 0xbe, 0x54, 0x5f, 0x0c, 0xbe, 0x2b, 0x3e, 0x98, 0x3d,
  0x55, 0xbe, 0x61, 0x3e, 0xda, 0xc4, 0x9a, 0x3d, 0x5c, 0xef, 0x5a, 0x3d,
  0xfb, 0x8a, 0x5d, 0xbe, 0x3d, 0x64, 0x27, 0xbe, 0x47, 0xb6, 0x6a, 0x3e,
  0x30, 0x52, 0xbf, 0x3d, 0x78, 0x2e, 0x0c, 0x3e, 0xa7, 0x97, 0x4b, 0xbc,
  0x6a, 0xad, 0xf5, 0xbd, 0xbd, 0x67, 0x35, 0x3e, 0xee, 0x01, 0xc9, 0x3c,
  0x5b, 0x4f, 0x95, 0x3b, 0x88, 0x97, 0x03, 0x3e, 0xc6, 0x35, 0x22, 0x3d,
  0x4b, 0x6b, 0xe5, 0xbd, 0x75, 0xa1, 0xe7, 0xbd, 0x4c, 0x56, 0x40, 0xbe,
  0x6d, 0x8e, 0xbe, 0xbd, 0xf4, 0x3d, 0x16, 0xbe, 0x6f, 0xa3, 0x3c, 0xbe,
  0x43, 0xca, 0x9c, 0xbd, 0xab, 0x97, 0x80, 0x3e, 0xdf, 0x10, 0xbe, 0x3d,
  0xab, 0x99, 0x0d, 0x3e, 0x53, 0xc8, 0x1d, 0xbe, 0x84, 0x78, 0xa4, 0x3d,
  0xc5, 0xdc, 0xa2, 0x3d, 0xe2, 0x43, 0x60, 0xbe, 0xa7, 0xed, 0xcf, 0x3b,
  0xcc, 0xfd, 0x4d, 0x3e, 0x05, 0xc6, 0x26, 0x3e, 0x7d, 0x9f, 0xe4, 0xbd,
  0x9f, 0x10, 0xc5, 0x3d, 0x53, 0x5d, 0x22, 0x3e, 0x01, 0xa7, 0x89, 0xbe,
  0x99, 0x5e, 0x7b, 0xbd, 0xa9, 0x0e, 0x18, 0x3e, 0x65, 0x41, 0x9d, 0x3c,
  0x95, 0xd1, 0xd8, 0x3c, 0x12, 0xf8, 0x43, 0x3d, 0xc4, 0x05, 0x2d, 0x3d,
  0x61, 0xbf, 0xad, 0x3d, 0x0d, 0x20, 0xe6, 0xbd, 0xa4, 0xbf, 0xfd, 0xbd,
  0xbb, 0xb9, 0xbd, 0xbd, 0xad, 0x8e, 0xdc, 0x3c, 0x16, 0x83, 0xad, 0x3d,
  0xae, 0xeb, 0xb5, 0x3d, 0x41, 0x52, 0x86, 0x3a, 0x11, 0x4f, 0xc8, 0x3d,
  0x14, 0x73, 0xe3, 0x3d, 0xda, 0x5a, 0xf6, 0xbc, 0xd8, 0x52, 0x89, 0x3e,
  0xc5, 0xde, 0x4e, 0xbe, 0xd6, 0xcb, 0x91, 0xbd, 0x6b, 0x35, 0x28, 0x3e,
  0xce, 0x05, 0xf1, 0xbd, 0x7b, 0xbd, 0x6d, 0x3e, 0xb1, 0x3b, 0xbc, 0x3d,
  0x9f, 0xdd, 0x26, 0x3e, 0x88, 0xc7, 0x81, 0x3d, 0xb0, 0xfc, 0xd9, 0xbd,
  0xee, 0x99, 0x02, 0xbd, 0x51, 0x67, 0x56, 0xbe, 0x19, 0x73, 0xd0, 0xbc,
  0x67, 0xf4, 0x19, 0xbe, 0x21, 0x79, 0x42, 0x3e, 0xbf, 0xf7, 0x6f, 0x3d,
  0x68, 0xf0, 0x32, 0xbe, 0xf7, 0x06, 0xc1, 0x3d, 0x38, 0xa6, 0x57, 0x3d,
  0xf5, 0x31, 0x4b, 0x3c, 0x98, 0xfd, 0x8c, 0xbc, 0x7f, 0xf3, 0x36, 0xbe,
  0x42, 0xd4, 0x75, 0x3e, 0xf0, 0x47, 0x9b, 0x3d, 0xbb, 0x82, 0x1b, 0x3e,
  0xbe, 0xf4, 0x4c, 0x3e, 0xc6, 0xb3, 0x56, 0xbd, 0x9d, 0x27, 0x6a, 0xbe,
  0x68, 0x4e, 0x07, 0xbe, 0xf4, 0xb2, 0x45, 0x3e, 0xd6, 0xe4, 0x9c, 0xbd,
  0x8e, 0x09, 0x18, 0x3e, 0x93, 0x94, 0xd8, 0x3d, 0xf1, 0x80, 0x1e, 0xbe,
  0xab, 0x66, 0x35, 0xbe, 0x28, 0x38, 0x07, 0x3e, 0xeb, 0x87, 0x79, 0x3e,
  0x82, 0x56, 0x05, 0xbd, 0x64, 0x1d, 0x81, 0xbd, 0x9c, 0x7e, 0x58, 0x3e,
  0xb8, 0xc5, 0x82, 0xbe, 0xb7, 0x47, 0xf6, 0x3d, 0xb2, 0x40, 0xd2, 0x3c,
  0x9a, 0xd0, 0xfe, 0x3d, 0x99, 0x6a, 0x62, 0x3d, 0xa4, 0x23, 0xec, 0xbd,
  0xbd, 0xa0, 0x21, 0xbe, 0x9e, 0x61, 0x8f, 0xbe, 0xd4, 0x02, 0xf5, 0x3d,
  0x3b, 0x31, 0x13, 0xbd, 0xdc, 0xb4, 0x85, 0x3e, 0xba, 0xed, 0x0f, 0xbe,
  0x86, 0x3a, 0x09, 0x3e, 0x21, 0xfa, 0x1b, 0x3d, 0xec, 0xd0, 0xc0, 0xbd,
  0x66, 0x63, 0xb9, 0x3c, 0x41, 0x6d, 0xc0, 0xbc, 0x09, 0x55, 0xda, 0xbd,
  0x5d, 0xa9, 0x76, 0x3d, 0xeb, 0x20, 0x09, 0x3d, 0x45, 0x2d, 0x1b, 0x3e,
  0x25, 0x7e, 0xa6, 0xbd, 0x5e, 0x8f, 0x78, 0xbe, 0xe6, 0x18, 0x68, 0xbc,
  0x34, 0xfa, 0x57, 0x3d, 0x43, 0x3d, 0x59, 0x3e, 0xb4, 0x0f, 0x94, 0xbe,
  0xf3, 0x0c, 0x25, 0xbd, 0x04, 0x5b, 0x7b, 0x3e, 0xa0, 0x3c, 0xbc, 0xbd,
  0x16, 0xc4, 0x00, 0x3e, 0x98, 0x5b, 0x71, 0xbe, 0x68, 0xd7, 0x74, 0x3e,
  0x0e, 0x27, 0xb8, 0xbc, 0x51, 0x04, 0x52, 0xbe, 0x40, 0xdf, 0x49, 0xbe,
  0x66, 0x1c, 0x57, 0xbe, 0xe8, 0xbc, 0x50, 0xbe, 0x78, 0x7e, 0xc3, 0x3d,
  0xe7, 0x8e, 0x2a, 0x3e, 0xef, 0x87, 0x4f, 0x3e, 0xc6, 0x11, 0x62, 0xbe,
  0xbd, 0x24, 0x4c, 0x3e, 0x31, 0xb3, 0x37, 0x3e, 0x6d, 0x71, 0xd7, 0xbd,
  0x79, 0x23, 0x5a, 0xbe, 0x89, 0x6e, 0x2a, 0xbc, 0x40, 0x40, 0xd2, 0x3d,
  0xae, 0x35, 0x23, 0x3e, 0xaf, 0xce, 0x36, 0xbe, 0x52, 0xc4, 0x97, 0x3d,
  0xd9, 0x46, 0x01, 0x3e, 0xd7, 0x58, 0x56, 0x3e, 0x6b, 0xff, 0x3d, 0xbd,
  0xbb, 0xc7, 0x56, 0xbe, 0xe7, 0xd2, 0x27, 0xbe, 0xca, 0x06, 0x19, 0x3e,
  0x90, 0xd1, 0x3a, 0xbc, 0xa8, 0xca, 0xcd, 0xbd, 0x22, 0xed, 0xc8, 0xbc,
  0xcb, 0xec, 0x58, 0xbc, 0x7d, 0xf5, 0x7e, 0xbe, 0xaa, 0xdf, 0x71, 0xbe,
  0x56, 0xa7, 0x3f, 0xb7, 0xd7, 0x19, 0x06, 0xbb, 0xff, 0x87, 0xe1, 0xbc,
  0x1c, 0x77, 0x4b, 0x3e, 0x30, 0xff, 0x35, 0x3e, 0x70, 0x52, 0x30, 0x3e,
  0x4e, 0x83, 0x3f, 0x3e, 0xbb, 0xe9, 0x86, 0x3b, 0x0e, 0x5c, 0x5b, 0x3e,
  0xd3, 0x24, 0x2a, 0x3e, 0x18, 0x38, 0x2a, 0x3c, 0x34, 0x22, 0x4b, 0x3d,
  0x1a, 0x6e, 0x88, 0x3c, 0x5c, 0x09, 0xa0, 0xbc, 0xf4, 0x18, 0x83, 0xbe,
  0x17, 0xb1, 0x04, 0xbe, 0xb3, 0x7b, 0x44, 0x3e, 0xcf, 0xa2, 0xb0, 0x3d,
  0xbd, 0xe4, 0x36, 0x3e, 0x2e, 0x44, 0x46, 0xbe, 0x35, 0xbf, 0xf1, 0xbd,
  0x23, 0xc5, 0x3e, 0x3e, 0xb4, 0xaa, 0xb9, 0xbc, 0x9e, 0x59, 0xca, 0xbd,
  0xda, 0xaf, 0x1e, 0x3e, 0xa6, 0x4b, 0xd8, 0xbb, 0x75, 0x41, 0x3a, 0x3d,
  0x44, 0x27, 0xb1, 0xbd, 0x85, 0xfa, 0x5e, 0x3e, 0x3b, 0x01, 0x38, 0xbe,
  0xd2, 0xfc, 0x80, 0xbd, 0xf1, 0xf2, 0xfa, 0x3d, 0x54, 0x6d, 0x23, 0x3d,
  0x95, 0x8a, 0x7d, 0x3d, 0x9a, 0x19, 0x14, 0x3d, 0x10, 0x86, 0x65, 0x3e,
  0xfb, 0x55, 0x2e, 0xbd, 0xf9, 0x01, 0x60, 0xbd, 0xc9, 0xe9, 0xe5, 0x3c,
  0x08, 0xe3, 0x31, 0xbd, 0x70, 0xaf, 0xbc, 0x3d, 0xe9, 0xd6, 0xc9, 0xbd,
  0x35, 0x89, 0x45, 0x3e, 0x1d, 0x54, 0x13, 0xbe, 0xb2, 0xe5, 0x52, 0xbd,
  0x04, 0xf1, 0x27, 0xbe, 0x48, 0xb6, 0x21, 0x3e, 0xe1, 0xb4, 0x71, 0x3e,
  0x1f, 0xa8, 0x4f, 0x3e, 0xc2, 0xc0, 0xf9, 0xba, 0x69, 0x60, 0x81, 0xbc,
  0x01, 0x70, 0xe7, 0x3d, 0xc0, 0x09, 0x57, 0xbe, 0xb6, 0xce, 0x55, 0xbe,
  0xf7, 0x8b, 0x32, 0x3e, 0xed, 0xe1, 0x45, 0xbe, 0x43, 0x59, 0x27, 0xbe,
  0x81, 0x44, 0xa6, 0xbd, 0x11, 0xaf, 0x63, 0xbd, 0x23, 0x8b, 0x55, 0xbe,
  0xe8, 0xd7, 0x2b, 0x3e, 0x68, 0xfc, 0x0d, 0x3e, 0xee, 0x85, 0x4c, 0xbe,
  0x30, 0xdf, 0x1a, 0x3e, 0xd6, 0x94, 0xf4, 0x3d, 0x56, 0xd7, 0xb1, 0xbd,
  0x65, 0xc2, 0x3f, 0x3e, 0x65, 0x57, 0x2a, 0xbe, 0x17, 0x19, 0x47, 0xbe,
  0x72, 0x10, 0x8d, 0x3d, 0x07, 0x40, 0x44, 0x3e, 0xf7, 0xa8, 0x54, 0xbe,
  0x44, 0x00, 0x69, 0x3e, 0xbe, 0xdd, 0x43, 0x3d, 0x85, 0x3b, 0x33, 0x3e,
  0x08, 0x94, 0x8a, 0xbd, 0x1e, 0x8b, 0x3a, 0xbe, 0x47, 0x08, 0xe1, 0xbd,
  0x63, 0xcf, 0x15, 0xbd, 0xf7, 0xd7, 0xd2, 0xbd, 0x28, 0xdc, 0xda, 0xbd,
  0xfa, 0xd6, 0x46, 0xbe, 0xb6, 0xc3, 0xd6, 0xbd, 0x63, 0x7a, 0x0f, 0x3d,
  0x4c, 0xef, 0x81, 0xbe, 0xe5, 0xca, 0x82, 0x3d, 0xba, 0xc5, 0x3b, 0xbd,
  0x6a, 0xcb, 0x87, 0xbe, 0x82, 0xe8, 0x30, 0x3e, 0x22, 0x4a, 0x1b, 0xbd,
  0x76, 0xcc, 0x12, 0x3e, 0x78, 0xeb, 0x86, 0x3d, 0x3f, 0xcc, 0xfb, 0x3d,
  0x03, 0x26, 0x61, 0x3e, 0xfc, 0x50, 0x27, 0x3e, 0xd0, 0x7a, 0x95, 0xbd,
  0x22, 0xf2, 0x63, 0xbe, 0x22, 0x1b, 0x76, 0x3d, 0xfa, 0x2f, 0xe6, 0xbd,
  0x5c, 0xba, 0x1c, 0x3e, 0xa9, 0x1b, 0x05, 0xbe, 0xe9, 0x6c, 0x86, 0xbd,
  0x2c, 0x3e, 0xca, 0x3d, 0x3d, 0x66, 0x2e, 0x3d, 0x39, 0xd9, 0x9b, 0xbd,
  0x72, 0xe5, 0x97, 0xbd, 0x6d, 0xe1, 0x27, 0xbe, 0xa4, 0xa5, 0xc3, 0x3c,
  0xe8, 0x64, 0x9d, 0x3d, 0x77, 0xa6, 0x71, 0xbe, 0x29, 0x83, 0x92, 0xbd,
  0x0e, 0x39, 0xec, 0x3d, 0xca, 0x37, 0x6a, 0x3c, 0x18, 0xe5, 0x49, 0xbe,
  0x95, 0xa7, 0x37, 0x3e, 0x76, 0x94, 0x8a, 0xbd, 0x9f, 0x87, 0x5a, 0xbd,
  0x26, 0x08, 0x56, 0xbe, 0xcf, 0x98, 0x35, 0x3e, 0xfd, 0x6d, 0x3d, 0x3e,
  0xf9, 0xd3, 0x7c, 0xbe, 0x53, 0xf1, 0x45, 0x3c, 0xe4, 0xf4, 0x20, 0xbd,
  0xb8, 0x99, 0xd0, 0xbd, 0x94, 0x9a, 0xff, 0x3b, 0xde, 0x78, 0x3e, 0x3d,
  0xc6, 0x71, 0x2d, 0xbc, 0x37, 0x76, 0x45, 0x3e, 0x54, 0xb4, 0xcf, 0xbb,
  0x02, 0xf4, 0xc8, 0xbd, 0x40, 0x40, 0x42, 0x3e, 0x6d, 0xa3, 0x81, 0x3d,
  0xcd, 0x6e, 0xae, 0xbc, 0xb0, 0xff, 0x9d, 0x3d, 0x58, 0xc9, 0x33, 0xbe,
  0xdc, 0x92, 0x78, 0x3d, 0xe2, 0x0d, 0x67, 0x3e, 0x02, 0x38, 0x05, 0x3d,
  0xaf, 0x72, 0x1c, 0xbe, 0x51, 0x3e, 0xd7, 0xbd, 0xcd, 0x1d, 0x4f, 0xbe,
  0x70, 0x45, 0x01, 0x3d, 0xc9, 0x38, 0x42, 0xbe, 0x55, 0xa7, 0x46, 0xbc,
  0xf2, 0x76, 0xd0, 0xbd, 0xbd, 0x0e, 0x44, 0xbe, 0x84, 0xb2, 0xe8, 0xb7,
  0xd6, 0xbd, 0x9c, 0x3c, 0x3a, 0x42, 0xd3, 0x3d, 0x11, 0x90, 0x33, 0x3e,
  0xdf, 0x24, 0xcb, 0xbd, 0xde, 0x47, 0x89, 0xbd, 0x70, 0xc8, 0x12, 0xbd,
  0xbc, 0xf5, 0x4a, 0xbe, 0x4e, 0xdc, 0x37, 0x3e, 0xbb, 0x79, 0x57, 0x3e,
  0x48, 0x0c, 0x23, 0xbe, 0x7a, 0x9b, 0xb8, 0xbd, 0xb4, 0x6b, 0x1a, 0xbe,
  0x27, 0x05, 0xa3, 0xbd, 0x79, 0xe2, 0x24, 0xbd, 0x86, 0x1e, 0x07, 0xbe,
  0xac, 0xea, 0x4d, 0x3d, 0xe7, 0x8a, 0x2c, 0xbd, 0x4f, 0xb7, 0xe8, 0xbc,
  0x54, 0xf6, 0x8f, 0xbd, 0x5e, 0x28, 0xfc, 0xbd, 0xc2, 0xd3, 0x1a, 0xbe,
  0x50, 0xdc, 0x26, 0xbe, 0x4b, 0xf7, 0x2c, 0x3e, 0x88, 0xc0, 0x67, 0x3e,
  0x48, 0x4f, 0x1c, 0xbe, 0x0d, 0xa1, 0xad, 0xbd, 0x1c, 0x75, 0x32, 0xbe,
  0x57, 0xe8, 0x84, 0xbe, 0x15, 0x4c, 0xeb, 0xbd, 0xd3, 0xfb, 0x5d, 0xbe,
  0x45, 0x2e, 0x22, 0x3d, 0xe1, 0x30, 0x30, 0xbd, 0xbb, 0x16, 0x63, 0xbd,
  0xfc, 0xf0, 0xd8, 0xbd, 0x82, 0x5e, 0x35, 0x3e, 0x59, 0x60, 0x45, 0x3e,
  0x7d, 0x29, 0x1d, 0x3e, 0x11, 0x23, 0xcc, 0x3d, 0x0f, 0xf6, 0x8f, 0xbd,
  0xa2, 0xe4, 0xba, 0xbd, 0x30, 0x2a, 0x10, 0x3e, 0x51, 0x63, 0x42, 0xbe,
  0x79, 0xec, 0x94, 0x3d, 0xfa, 0x11, 0x57, 0xbe, 0xbc, 0xb1, 0x63, 0x3e,
  0x43, 0xc5, 0x85, 0xbe, 0x07, 0xbf, 0xe6, 0xbc, 0x73, 0x13, 0x90, 0xbe,
  0xf7, 0x3b, 0x6e, 0xbe, 0xf4, 0xcc, 0xcf, 0xbc, 0x15, 0xaf, 0x6a, 0xbd,
  0x82, 0x69, 0x63, 0x3d, 0x80, 0x7a, 0xff, 0x3d, 0x36, 0xca, 0x51, 0x3e,
  0xbb, 0xae, 0x71, 0xbe, 0x76, 0x42, 0x83, 0xbe, 0xc2, 0x50, 0xb3, 0x3c,
  0x6b, 0xa9, 0x35, 0x3e, 0x72, 0x6b, 0x65, 0x3e, 0xbf, 0xfe, 0x57, 0xbe,
  0xbf, 0x7d, 0x9c, 0x3d, 0x42, 0xd5, 0xc7, 0x3d, 0xb6, 0xab, 0x4d, 0xbe,
  0x02, 0xb4, 0xec, 0x3d, 0xa0, 0x6f, 0x1f, 0xbe, 0x5b, 0x68, 0x2b, 0x3e,
  0x1f, 0xfd, 0x9b, 0x3d, 0x3e, 0x1b, 0x1a, 0x3d, 0xc4, 0xd1, 0x29, 0x3e,
  0x17, 0xad, 0x3f, 0x3d, 0x2a, 0x35, 0xb0, 0x3d, 0x1b, 0x35, 0x72, 0x3d,
  0xed, 0xe5, 0x07, 0x3e, 0xe6, 0x47, 0x55, 0xba, 0x29, 0x60, 0x4c, 0xbe,
  0x50, 0xe5, 0x27, 0xbe, 0xc0, 0x7d, 0x61, 0x3e, 0x55, 0xda, 0x68, 0x3c,
  0x3d, 0xdb, 0xf2, 0x3d, 0x0f, 0x59, 0x8f, 0x3d, 0x54, 0x39, 0xa4, 0x3c,
  0xa4, 0xdc, 0xff, 0xbd, 0x17, 0x56, 0x42, 0x3e, 0x20, 0x25, 0x60, 0x3e,
  0xb6, 0x48, 0xe8, 0xbd, 0x87, 0x66, 0xf9, 0x3b, 0xc6, 0xca, 0x5f, 0xbb,
  0xd4, 0xb3, 0x05, 0xbe, 0x87, 0x67, 0x76, 0x3e, 0x53, 0x6e, 0xe2, 0xbd,
  0x74, 0x38, 0xe4, 0xbc, 0xe4, 0xd4, 0x17, 0x3c, 0x1f, 0x2f, 0xad, 0x3d,
  0x98, 0x52, 0x49, 0x3e, 0x16, 0x86, 0x46, 0xbe, 0xe1, 0xe0, 0x61, 0xbe,
  0xac, 0x2b, 0x6c, 0x3c, 0xb6, 0xda, 0x07, 0x3e, 0xf5, 0x9c, 0xcd, 0xbd,
  0x44, 0x63, 0x03, 0xbd, 0x19, 0x05, 0x39, 0xbd, 0x21, 0x49, 0x3c, 0xbe,
  0x11, 0x16, 0x24, 0xbe, 0xef, 0x1d, 0x03, 0xbe, 0x25, 0x1b, 0x7d, 0x3e,
  0x36, 0x76, 0x0d, 0xbe, 0x68, 0x23, 0xd6, 0xbd, 0xd6, 0x5b, 0xd5, 0xbc,
  0x0a, 0x2b, 0xca, 0x3d, 0x82, 0xdc, 0xd7, 0xbd, 0x0d, 0x75, 0x50, 0xbe,
  0x6a, 0xd6, 0x8e, 0xbd, 0xb1, 0xe4, 0x63, 0xbe, 0x37, 0x5b, 0x04, 0x3e,
  0x09, 0x4f, 0x71, 0x3e, 0x38, 0x3c, 0xa8, 0xbd, 0x64, 0x27, 0xdd, 0x3c,
  0xda, 0x4d, 0x55, 0xbe, 0xc5, 0x3b, 0xff, 0xbc, 0xfd, 0x90, 0x80, 0x3e,
  0xec, 0x3b, 0x25, 0xbe, 0x6c, 0xba, 0x15, 0x3d, 0xbf, 0xcb, 0xcc, 0xbd,
  0xc4, 0x19, 0x48, 0x3d, 0xdd, 0x22, 0xb3, 0x3d, 0xde, 0x7e, 0x66, 0xbd,
  0x61, 0x19, 0x29, 0xbe, 0xda, 0x95, 0x2b, 0x3e, 0x87, 0xb3, 0x31, 0xbe,
  0xb7, 0x69, 0x07, 0xbe, 0x44, 0x53, 0x6f, 0xbc, 0xf7, 0x59, 0x60, 0xbd,
  0xbb, 0x0c, 0x6c, 0xbe, 0x6d, 0x88, 0x9b, 0x3d, 0x1c, 0xa5, 0x82, 0xbe,
  0x8b, 0xcb, 0x21, 0xbe, 0xf4, 0xcc, 0xa9, 0x3d, 0x4c, 0xcc, 0xaa, 0x3d,
  0xf6, 0x6c, 0x05, 0x3d, 0xd6, 0x80, 0xd5, 0x3d, 0x5f, 0x30, 0x5b, 0xbe,
  0x9b, 0x06, 0xec, 0xbd, 0x1e, 0xb7, 0x4e, 0x3e, 0x9e, 0xcc, 0xf0, 0xbc,
  0xe3, 0x90, 0x0e, 0x3d, 0xc5, 0xb9, 0x75, 0xbe, 0x41, 0x13, 0xca, 0x3c,
  0x0d, 0xf7, 0x02, 0x3e, 0x63, 0x47, 0x75, 0x3e, 0x8f, 0x01, 0xee, 0x3d,
  0x52, 0xee, 0x45, 0xbd, 0xc9, 0x81, 0x74, 0x3e, 0xe1, 0xf2, 0xd0, 0x3c,
  0x69, 0x0a, 0x57, 0xbe, 0x61, 0xe3, 0x1d, 0x3e, 0xfb, 0x08, 0xab, 0xbd,
  0x50, 0x91, 0x1c, 0x3e, 0xdb, 0x9e, 0x3c, 0x3e, 0x13, 0xb6, 0x99, 0xbd,
  0xaa, 0xc7, 0x47, 0x3c, 0x90, 0x57, 0x7f, 0x3e, 0xaa, 0x32, 0x09, 0x3d,
  0x25, 0xa6, 0x1c, 0xbd, 0xdb, 0x9f, 0x40, 0x3e, 0x90, 0xc1, 0x2e, 0x3e,
  0x8f, 0xdb, 0x4a, 0x3e, 0x01, 0x5f, 0x04, 0x3e, 0x1a, 0xbc, 0x26, 0xbe,
  0x26, 0x68, 0x08, 0x3e, 0xfc, 0x1e, 0x1a, 0x3e, 0x96, 0x23, 0xfb, 0x3d,
  0x06, 0xce, 0x22, 0xbe, 0x54, 0x8d, 0x57, 0xbe, 0xa7, 0x5b, 0x81, 0xbe,
  0x80, 0xdc, 0xb4, 0x3a, 0x7f, 0xce, 0xaf, 0x3d, 0x87, 0xc6, 0x23, 0xbe,
  0x3f, 0x27, 0x3f, 0xbe, 0x92, 0x11, 0x41, 0x3e, 0x55, 0xf3, 0x85, 0x3d,
  0xdd, 0x1b, 0xd3, 0x3d, 0x46, 0x12, 0x20, 0xbd, 0x76, 0x93, 0x44, 0xbc,
  0x11, 0x9a, 0x66, 0xbd, 0x3c, 0x25, 0x3a, 0xbe, 0x0b, 0x6d, 0xdf, 0xbd,
  0x4f, 0x1b, 0x39, 0x3e, 0x71, 0x00, 0xab, 0x3d, 0x27, 0x8c, 0xd1, 0x3b,
  0xae, 0xcb, 0x99, 0x3b, 0x25, 0x9f, 0x66, 0xbc, 0x9d, 0x14, 0x9c, 0xbb,
  0x71, 0x75, 0x08, 0xbe, 0x72, 0x2f, 0x5b, 0xbe, 0xa9, 0x5c, 0x1b, 0x3c,
  0x03, 0xb9, 0x9a, 0xbd, 0x57, 0xdb, 0xf8, 0x3d, 0x1d, 0x29, 0x28, 0x3e,
  0xc1, 0x58, 0xbc, 0xbc, 0x8d, 0x35, 0x2f, 0x3e, 0x9c, 0x81, 0x16, 0xbd,
  0x2a, 0xf4, 0x35, 0xbd, 0xc2, 0x25, 0x00, 0xbd, 0xc9, 0x09, 0x69, 0xbd,
  0x85, 0x1f, 0x8d, 0xbd, 0x7d, 0x60, 0x89, 0xbd, 0x25, 0x01, 0x66, 0xbe,
  0x5b, 0xba, 0x40, 0xbe, 0x42, 0x3f, 0x84, 0xbe, 0xe2, 0xc0, 0xe7, 0xbd,
  0x77, 0xcf, 0x21, 0xbc, 0xc7, 0x78, 0x6d, 0x3c, 0x7d, 0x64, 0x92, 0xbc,
  0xb0, 0xf4, 0x91, 0x3d, 0xa6, 0x16, 0x86, 0xbd, 0x19, 0x56, 0xbd, 0xbc,
  0xa0, 0x95, 0x34, 0xbe, 0x50, 0xb2, 0x6b, 0x3e, 0xb0, 0x00, 0x36, 0xbe,
  0x58, 0x8c, 0x4a, 0x3d, 0x6c, 0x95, 0xaa, 0xbc, 0x76, 0x64, 0x0b, 0x3e,
  0x67, 0xda, 0x52, 0x3e, 0xfa, 0x3b, 0x1d, 0x3e, 0x2d, 0xa4, 0xc5, 0xbd,
  0xc3, 0x0e, 0x2b, 0xbe, 0x82, 0xb5, 0xfe, 0xbc, 0x64, 0xa6, 0xf0, 0x3d,
  0x61, 0x3b, 0x8b, 0xbd, 0xdb, 0x1c, 0xcd, 0x3c, 0x60, 0x6b, 0x4b, 0xbe,
  0x90, 0x6f, 0x37, 0xbe, 0x22, 0x03, 0x6b, 0xbe, 0xe0, 0xad, 0x3f, 0xbe,
  0x85, 0xc7, 0x41, 0xbe, 0x29, 0xe9, 0x65, 0x3e, 0x72, 0x24, 0x5e, 0xbe,
  0xae, 0x33, 0x3d, 0x3e, 0x67, 0x64, 0xdd, 0xbd, 0x1c, 0x39, 0x1d, 0xbe,
  0xd8, 0xd0, 0x6e, 0xbe, 0x60, 0xc7, 0x93, 0xbe, 0xee, 0x9c, 0xd1, 0xbd,
  0x40, 0x0c, 0x8c, 0x3e, 0xa3, 0xb8, 0x60, 0xbe, 0xe2, 0x01, 0xe9, 0x3d,
  0x64, 0x41, 0xac, 0xbd, 0xbc, 0xf0, 0x5e, 0xbe, 0x27, 0x13, 0x9a, 0x3d,
  0xee, 0x60, 0x5c, 0x3e, 0x2d, 0x3f, 0x04, 0xbe, 0x4e, 0x00, 0xc4, 0xbd,
  0xf3, 0x67, 0x11, 0x3e, 0x27, 0xe4, 0xf8, 0x3c, 0x3f, 0xbd, 0x98, 0xbe,
  0xf7, 0xd9, 0x4b, 0x3e, 0xc7, 0xb9, 0xce, 0x3d, 0xe6, 0xa0, 0x30, 0x3d,
  0xaa, 0x8c, 0x48, 0x3e, 0xe3, 0xb1, 0x53, 0xbe, 0xed, 0x06, 0x92, 0x3e,
  0x12, 0xf4, 0x8f, 0x3d, 0x99, 0xc8, 0x21, 0xbe, 0xac, 0x01, 0x5a, 0xbd,
  0xfe, 0x60, 0x5d, 0xbe, 0xfd, 0x33, 0xe1, 0xbd, 0x9b, 0xec, 0x29, 0x3d,
  0x0c, 0x4d, 0xb2, 0x3a, 0x7f, 0xab, 0x92, 0xbe, 0x59, 0x2e, 0x1f, 0x3e,
  0x1f, 0xee, 0x35, 0xbd, 0xce, 0x68, 0x56, 0x3d, 0x01, 0x67, 0x6c, 0x3d,
  0xaa, 0x71, 0xea, 0xbc, 0x4e, 0x57, 0x57, 0x3e, 0xb7, 0x6d, 0xad, 0xbc,
  0x5d, 0x32, 0xd3, 0xbc, 0x97, 0x4e, 0x2d, 0xbd, 0xaf, 0xd7, 0x41, 0xbe,
  0x78, 0x13, 0x25, 0xbd, 0xc4, 0x74, 0x5c, 0x3e, 0x97, 0x52, 0x23, 0x3e,
  0xd8, 0x00, 0xa6, 0x3d, 0x5c, 0x46, 0x91, 0xbe, 0x6b, 0x76, 0x31, 0x3e,
  0x94, 0x71, 0x9c, 0xbb, 0xd8, 0x52, 0x5d, 0xb9, 0x47, 0x7d, 0xf8, 0xbc,
  0x73, 0xd5, 0x21, 0xbe, 0xc5, 0xc9, 0x04, 0xbd, 0x95, 0x60, 0x92, 0x3c,
  0xe8, 0xd1, 0x4d, 0x3e, 0xb0, 0xa3, 0x7d, 0xbe, 0x1c, 0x57, 0x5c, 0x3a,
  0x6a, 0x24, 0x3c, 0x3e, 0xf3, 0x22, 0x82, 0xbe, 0xcb, 0x65, 0x7a, 0x3e,
  0x77, 0x8e, 0xc5, 0xbd, 0xe2, 0xf5, 0x35, 0xbe, 0x68, 0x74, 0x3e, 0x3d,
  0xe8, 0x1c, 0x49, 0xbe, 0x2d, 0xec, 0x03, 0x3e, 0x2c, 0x54, 0x72, 0xbe,
  0x09, 0xc0, 0x39, 0xbe, 0xf9, 0xd5, 0x2d, 0xbd, 0xe8, 0x31, 0xc8, 0x3d,
  0xa9, 0xc8, 0x83, 0xbe, 0x81, 0x52, 0xe5, 0xbd, 0x0d, 0x5c, 0x95, 0xbd,
  0xa1, 0x87, 0xd4, 0xbd, 0x6c, 0x9e, 0xa2, 0x3d, 0x67, 0x0a, 0x2d, 0x3e,
  0x62, 0xb1, 0x23, 0x3e, 0xe8, 0xe8, 0x11, 0x3e, 0xf1, 0x2a, 0xe5, 0x3d,
  0x76, 0x7a, 0x28, 0xbe, 0xab, 0x67, 0x8d, 0x3c, 0x4a, 0xe2, 0x29, 0xbe,
  0x0d, 0x59, 0x09, 0x3d, 0x0b, 0xee, 0x86, 0xbe, 0x57, 0xb7, 0x29, 0xbe,
  0xf3, 0x19, 0xeb, 0xbd, 0x7c, 0x60, 0xe8, 0xbc, 0x11, 0xfd, 0x6b, 0xbe,
  0x58, 0x7e, 0x1e, 0xbe, 0xe1, 0xbb, 0xa3, 0xbd, 0x66, 0x9f, 0x1b, 0x3c,
  0xe7, 0xc8, 0x9b, 0x3b, 0x1d, 0x40, 0x48, 0x3d, 0x3d, 0x7e, 0xca, 0xbb,
  0xcc, 0x58, 0x83, 0x3e, 0x3a, 0x90, 0x03, 0x3e, 0x6d, 0xa3, 0x80, 0xbe,
  0xd3, 0x33, 0x97, 0xbd, 0x0f, 0x40, 0xc8, 0x3d, 0xc1, 0x09, 0x65, 0xbd,
  0xe8, 0xc3, 0x10, 0x3e, 0x51, 0x6d, 0x3d, 0x3e, 0x3d, 0x1d, 0xd3, 0x3d,
  0x35, 0x06, 0x55, 0xbe, 0x8e, 0x0b, 0x17, 0xbe, 0x20, 0x57, 0xd1, 0xbd,
  0xfc, 0xdb, 0x76, 0xbe, 0x3c, 0x41, 0x44, 0x3e, 0x54, 0xc9, 0xce, 0xbc,
  0x62, 0xe4, 0x54, 0xbd, 0x24, 0x7d, 0xdc, 0xbd, 0x8f, 0x74, 0x42, 0x3e,
  0x5c, 0x22, 0xdf, 0x3d, 0xba, 0xe1, 0x1f, 0x3e, 0x2a, 0x7d, 0x31, 0x3e,
  0x3b, 0x99, 0xf0, 0x3d, 0xc6, 0x24, 0x01, 0x3c, 0x48, 0x11, 0xfc, 0xbd,
  0x9b, 0x70, 0x32, 0xbd, 0xba, 0x4d, 0x42, 0x3e, 0x7a, 0xa1, 0x8e, 0x3c,
  0xac, 0x08, 0x03, 0x3c, 0x18, 0xc2, 0x80, 0xbd, 0xcd, 0xcb, 0x6f, 0xbe,
  0xe0, 0x9e, 0x2f, 0xbe, 0x4d, 0xab, 0xa4, 0x3d, 0xcb, 0xfe, 0xa5, 0xbd,
  0x15, 0x36, 0x65, 0x3d, 0x0c, 0x91, 0xa9, 0x3d, 0x34, 0x14, 0xce, 0xbd,
  0xb8, 0xdc, 0x75, 0x3d, 0x16, 0xe7, 0x7d, 0xbe, 0xe5, 0x50, 0x1d, 0x3e,
  0x1a, 0xdd, 0x18, 0x3d, 0xfe, 0x38, 0x36, 0xbe, 0x4a, 0x37, 0x0a, 0x3e,
  0xee, 0xd3, 0x9b, 0xbc, 0xef, 0x28, 0x97, 0x3c, 0xbb, 0x62, 0x1e, 0xbe,
  0xcb, 0x09, 0x8d, 0x3d, 0x8f, 0x57, 0xa9, 0xbd, 0xfd, 0x9e, 0x62, 0x3e,
  0xe3, 0x4c, 0x1d, 0x3e, 0x3f, 0x59, 0x66, 0xbd, 0x29, 0xb4, 0x69, 0xbe,
  0x59, 0xb0, 0xf2, 0xbd, 0xa5, 0x0e, 0x3e, 0xbe, 0x1b, 0xbd, 0xbf, 0x3d,
  0x6e, 0x22, 0xb9, 0x3d, 0x3f, 0x3f, 0x46, 0xbe, 0x8f, 0x22, 0x44, 0xbe,
  0xbd, 0xb4, 0x61, 0x3d, 0x5a, 0xef, 0x1b, 0xbe, 0x3b, 0xe0, 0x37, 0xbe,
  0xe5, 0xa9, 0xaf, 0xbd, 0x3e, 0xc7, 0x0f, 0xbe, 0x8b, 0xeb, 0x05, 0x3d,
  0x3b, 0xec, 0xe5, 0x3d, 0xf7, 0xa7, 0xa6, 0x3d, 0x3b, 0x45, 0x25, 0xbd,
  0x86, 0x6a, 0x12, 0x3d, 0x89, 0xf3, 0x1a, 0xbd, 0x4e, 0x96, 0x8a, 0x3e,
  0x25, 0x03, 0xe8, 0xbc, 0xf0, 0x65, 0x24, 0x3d, 0xf2, 0x19, 0x0b, 0xbe,
  0x38, 0xc5, 0x16, 0xbe, 0x12, 0x80, 0xbd, 0xbd, 0xec, 0x9d, 0x4a, 0xbe,
  0x23, 0x6c, 0x9b, 0x3b, 0x30, 0x4f, 0xc9, 0x3d, 0x26, 0x70, 0x50, 0x3d,
  0xb8, 0xcd, 0x1b, 0x3e, 0x04, 0xd7, 0xe5, 0xbd, 0x8d, 0x98, 0x18, 0x3e,
  0xe9, 0x65, 0xb5, 0xbd, 0x5e, 0xc5, 0xb8, 0xbd, 0xe7, 0x1a, 0xc8, 0x3d,
  0x3d, 0xfa, 0x6e, 0x3e, 0xd0, 0x03, 0x32, 0x3e, 0x81, 0x46, 0x3e, 0x3e,
  0xd6, 0x56, 0xb7, 0xbd, 0x4b, 0x65, 0x76, 0xbc, 0xe5, 0xd7, 0x22, 0x3e,
  0xb3, 0xf5, 0x89, 0xbd, 0xd3, 0x1c, 0xc0, 0xbb, 0x75, 0xc8, 0x86, 0x3e,
  0x69, 0xf7, 0x3e, 0x3e, 0x6f, 0xbd, 0x2b, 0xbe, 0x96, 0x36, 0x70, 0xbe,
  0x44, 0x55, 0x07, 0x3e, 0x84, 0x0a, 0x26, 0x3d, 0x0a, 0x78, 0xc1, 0xbd,
  0x7a, 0x4b, 0xa9, 0x3d, 0xc9, 0x3d, 0x02, 0x3c, 0x36, 0xa3, 0x1b, 0xbe,
  0xcc, 0x62, 0x0c, 0xbe, 0x85, 0xe2, 0x96, 0x3d, 0xc3, 0x15, 0x82, 0x3e,
  0x5e, 0x4e, 0x53, 0xbe, 0x65, 0x27, 0x3f, 0xbe, 0xc3, 0x1c, 0x8a, 0xbe,
  0xb3, 0xb5, 0x6f, 0xbe, 0x7e, 0x79, 0x14, 0x3e, 0xc8, 0x32, 0x30, 0x3d,
  0xf5, 0xee, 0xe1, 0x3d, 0x12, 0xf7, 0xfd, 0xbd, 0x18, 0xf7, 0x35, 0x3e,
  0x84, 0xf8, 0xf5, 0xbc, 0xdd, 0x46, 0x4b, 0xbe, 0xd8, 0xca, 0x14, 0x3e,
  0xb8, 0x44, 0xcd, 0xbd, 0x4d, 0xd5, 0xc5, 0xbd, 0xc8, 0x8b, 0x60, 0xbd,
  0xc8, 0x54, 0x97, 0xbc, 0xa3, 0x93, 0x59, 0x3e, 0x0e, 0x26, 0x69, 0x3e,
  0x41, 0xce, 0xd7, 0x3d, 0x7a, 0xab, 0x49, 0xbc, 0x6a, 0xda, 0x5c, 0xbe,
  0x80, 0x4f, 0xe4, 0xbc, 0x40, 0x7b, 0x14, 0x3d, 0xe7, 0xce, 0x5f, 0x3e,
  0xc3, 0x08, 0x0a, 0xbe, 0xbd, 0x68, 0x46, 0x3e, 0xb1, 0x06, 0xc4, 0xbd,
  0x15, 0xbc, 0x6e, 0x3e, 0x9e, 0xa0, 0x28, 0xbe, 0xe5, 0x7c, 0xdd, 0xbd,
  0x9e, 0x9b, 0xf6, 0xbd, 0xd5, 0xcc, 0x8d, 0xbc, 0xbe, 0x47, 0x5a, 0x3e,
  0xeb, 0xf8, 0x0e, 0x3d, 0x0b, 0x34, 0xfa, 0x3d, 0xea, 0xc3, 0x5b, 0x3e,
  0x3f, 0x18, 0xa6, 0xbb, 0xeb, 0x66, 0xba, 0x3d, 0x6c, 0xc2, 0xa9, 0x3d,
  0x7e, 0x71, 0x29, 0x3d, 0x0c, 0x06, 0x2f, 0xbe, 0x19, 0xba, 0x53, 0x3e,
  0xe1, 0xb5, 0xac, 0xbd, 0x93, 0x7d, 0x04, 0x3d, 0x48, 0x04, 0x3f, 0x3e,
  0x40, 0xba, 0x0a, 0x3e, 0x15, 0x94, 0xae, 0xbd, 0xea, 0x55, 0x27, 0xbd,
  0xd4, 0xc6, 0xc8, 0x3c, 0x04, 0x7c, 0x2e, 0x3e, 0x77, 0x2b, 0xa1, 0x3d,
  0x8d, 0x09, 0x13, 0x3e, 0xc1, 0x3b, 0x42, 0xbc, 0x2b, 0xbb, 0xa2, 0x3d,
  0x1b, 0x94, 0xbf, 0x3d, 0x8c, 0x43, 0x80, 0xbe, 0xff, 0xb6, 0x23, 0xbe,
  0x42, 0xe3, 0x1e, 0xbe, 0x11, 0x38, 0x8f, 0x3e, 0xe1, 0xd1, 0xa4, 0x3d,
  0x84, 0x57, 0xff, 0x3d, 0x4b, 0xeb, 0x8b, 0x3d, 0xf1, 0xa7, 0x70, 0xbd,
  0xca, 0x4f, 0x60, 0xbb, 0xe5, 0xa3, 0x40, 0x3e, 0x90, 0xc9, 0x49, 0xbd,
  0xb4, 0xfb, 0x72, 0x3e, 0x5d, 0x13, 0x3c, 0xbe, 0x8e, 0x9f, 0x8d, 0xbd,
  0x48, 0x08, 0xa6, 0x3d, 0x49, 0xcc, 0xc3, 0x3d, 0x80, 0xe1, 0xc2, 0xbd,
  0xae, 0x49, 0x13, 0x3e, 0x23, 0x97, 0x1b, 0xbe, 0xa2, 0x00, 0xc6, 0x3d,
  0x4d, 0x0c, 0x4c, 0x3e, 0xf1, 0x44, 0xc8, 0xbd, 0xb0, 0x5a, 0x05, 0x3e,
  0xd4, 0xce, 0x04, 0x3e, 0xaf, 0x62, 0x46, 0xbe, 0x76, 0xd6, 0xec, 0x3d,
  0x8b, 0x7d, 0x71, 0xbd, 0xed, 0x2d, 0x1a, 0x3d, 0x34, 0x09, 0x39, 0xbe,
  0x34, 0x36, 0x1d, 0xbe, 0x96, 0xcc, 0x0b, 0xbe, 0x79, 0xb1, 0xf4, 0x3d,
  0xe4, 0xf7, 0x34, 0xbe, 0xf9, 0x3d, 0x2b, 0x3d, 0xc1, 0x97, 0x96, 0xbd,
  0xd7, 0xd2, 0x81, 0x3e, 0xbb, 0x18, 0x9b, 0xbd, 0xfa, 0xff, 0x03, 0xbe,
  0xfb, 0x29, 0xb5, 0x3d, 0x43, 0x3f, 0x31, 0x3c, 0xfe, 0x1d, 0x4f, 0x3e,
  0xab, 0xb2, 0x02, 0x3d, 0xa5, 0x07, 0xb6, 0x3d, 0xca, 0x41, 0x81, 0xbe,
  0x88, 0x3f, 0x2a, 0x3e, 0xa4, 0xe4, 0x48, 0x3e, 0x14, 0x31, 0x9c, 0xbb,
  0x80, 0x7f, 0x86, 0xbc, 0x3d, 0x03, 0x41, 0xbe, 0x87, 0x65, 0x39, 0xbe,
  0x3a, 0x02, 0x38, 0x3d, 0x05, 0x8f, 0x60, 0xbd, 0xe0, 0x05, 0x0c, 0x3e,
  0x55, 0x3a, 0x7f, 0xbe, 0xf9, 0xb1, 0xa4, 0x3d, 0xf0, 0xf9, 0x14, 0xbe,
  0x3a, 0x90, 0x09, 0x3c, 0x61, 0x33, 0x7a, 0x3e, 0xaa, 0x11, 0x8d, 0x3d,
  0xfc, 0x6f, 0x02, 0x3e, 0x00, 0xce, 0xcb, 0xbd, 0xae, 0x57, 0xcf, 0x3d,
  0xe9, 0xd6, 0x6a, 0x3e, 0x3f, 0x75, 0xad, 0x3d, 0xdb, 0xa0, 0x05, 0x3e,
  0x4c, 0x4e, 0x7a, 0xbe, 0x67, 0xdb, 0x45, 0x3e, 0x63, 0x7a, 0x63, 0xbe,
  0xd3, 0xaf, 0x85, 0xbe, 0x1a, 0xc4, 0xce, 0x3c, 0xb3, 0x84, 0x11, 0xbe,
  0xf6, 0xb7, 0x3a, 0x3d, 0xbf, 0xd8, 0x2c, 0x3e, 0x19, 0x55, 0xc4, 0x3d,
  0x9e, 0xdb, 0xff, 0xff, 0x04, 0x00, 0x00, 0x00, 0x00, 0x01, 0x00, 0x00,
  0x82, 0xd2, 0x50, 0x3d, 0xcc, 0xea, 0x0b, 0xbd, 0xe3, 0x18, 0xc3, 0x3c,
  0x1a, 0x42, 0xee, 0x3c, 0xaf, 0xb9, 0xbb, 0x3c, 0x06, 0x94, 0x66, 0x3d,
  0x54, 0x8c, 0x65, 0x3d, 0xe8, 0xa9, 0x8f, 0x3d, 0x77, 0xb3, 0x39, 0x3d,
  0x32, 0xfe, 0x82, 0x3d, 0xa6, 0x5a, 0x13, 0xbd, 0xd7, 0xf1, 0xcb, 0x3c,
  0x2b, 0xac, 0x2d, 0x3d, 0x30, 0xfd, 0x79, 0x3d, 0xe2, 0xaf, 0x4e, 0x3d,
  0xcf, 0x4c, 0x07, 0xbd, 0x13, 0x3f, 0x34, 0x3d, 0x20, 0xbb, 0xdb, 0x3a,
  0x4d, 0x48, 0xba, 0x3d, 0x71, 0x3a, 0x80, 0x3d, 0x5b, 0xb5, 0x8b, 0x3d,
  0x58, 0x05, 0xb8, 0x3c, 0xc0, 0xe6, 0x3a, 0x3d, 0x39, 0x1f, 0xd0, 0xbc,
  0x47, 0x29, 0x42, 0x3d, 0xc3, 0x07, 0x0d, 0x3d, 0x1e, 0xe6, 0xd4, 0x3c,
  0x6f, 0xbf, 0x89, 0x3d, 0x4e, 0xd4, 0x73, 0x3d, 0x4c, 0xa5, 0x66, 0x3d,
  0x8a, 0x3c, 0x22, 0x3d, 0x85, 0xff, 0x69, 0x3d, 0x2d, 0x8a, 0x9d, 0xbc,
  0xb8, 0xf2, 0x57, 0x3b, 0x5f, 0xfb, 0xfd, 0xbc, 0xa1, 0x96, 0x1b, 0xbd,
  0x38, 0x51, 0xb5, 0x3d, 0xd6, 0xad, 0xd3, 0xbc, 0x1d, 0xfd, 0x5d, 0x3d,
  0x5c, 0x7a, 0xe3, 0x3c, 0xa6, 0xcd, 0x7a, 0x3d, 0xb2, 0x09, 0x19, 0x3d,
  0xa7, 0xfe, 0xc9, 0x3b, 0xae, 0xa8, 0xba, 0x3c, 0x0b, 0xbd, 0x2f, 0x3d,
  0xbf, 0x89, 0x35, 0x3d, 0x88, 0x85, 0x71, 0x3c, 0x8b, 0xbc, 0x2a, 0x3d,
  0xda, 0x87, 0xff, 0xbc, 0x40, 0x08, 0x48, 0x3d, 0x20, 0x36, 0xd9, 0xbc,
  0x6e, 0xc5, 0x52, 0x3d, 0x71, 0x05, 0x00, 0xbd, 0x4b, 0x13, 0x96, 0xbb,
  0x04, 0x49, 0x33, 0x3d, 0x33, 0x9d, 0x86, 0x3b, 0x1d, 0x64, 0x7e, 0x3d,
  0xe4, 0xb6, 0x76, 0x3d, 0x33, 0x21, 0x59, 0x3d, 0x9c, 0xc6, 0xea, 0xbb,
  0x09, 0x83, 0x1c, 0x3d, 0x66, 0x59, 0x14, 0xbc, 0x16, 0xad, 0x7c, 0x3b,
  0xbe, 0xf7, 0x80, 0xbc, 0xaa, 0xdc, 0xff, 0xff, 0x04, 0x00, 0x00, 0x00,
  0x80, 0x00, 0x00, 0x00, 0x10, 0x32, 0x49, 0x3d, 0xde, 0xee, 0x05, 0xbd,
  0x93, 0x92, 0x3b, 0x3d, 0xdd, 0x65, 0x89, 0x3c, 0x2e, 0x16, 0x68, 0x3d,
  0x2d, 0x79, 0x47, 0x3d, 0x03, 0xa4, 0x95, 0xbc, 0x38, 0x53, 0x24, 0x3d,
  0xfa, 0xc9, 0x86, 0x3b, 0xfc, 0xb5, 0x26, 0x3d, 0xa3, 0xfd, 0x43, 0x3d,
  0xc3, 0x44, 0x12, 0x3c, 0x35, 0x04, 0x18, 0x3d, 0xa0, 0x68, 0x0e, 0xbc,
  0x4a, 0x26, 0x42, 0xbb, 0xb6, 0xea, 0x55, 0xba, 0x72, 0x8c, 0x13, 0xbb,
  0x22, 0xa3, 0x40, 0x3b, 0x69, 0xde, 0x08, 0x3c, 0xda, 0xb6, 0x2f, 0x3d,
  0xb7, 0x78, 0x81, 0x3c, 0xdf, 0x77, 0x60, 0xbc, 0xa3, 0x1d, 0xb6, 0xbc,
  0xa7, 0xc5, 0x50, 0x3d, 0xfa, 0x79, 0xde, 0x3c, 0x2a, 0x98, 0xe8, 0x3c,
  0x0a, 0xbe, 0x21, 0x3d, 0x36, 0x55, 0x97, 0xbc, 0xd3, 0x1a, 0xd8, 0xbc,
  0x78, 0x77, 0x59, 0x3d, 0x91, 0xa8, 0x13, 0x3d, 0xe7, 0x0c, 0xa0, 0xbc,
  0x36, 0xdd, 0xff, 0xff, 0x04, 0x00, 0x00, 0x00, 0x10, 0x00, 0x00, 0x00,
  0x90, 0xe0, 0xa8, 0x3c, 0x76, 0x96, 0x4c, 0xbb, 0xe7, 0xaf, 0xb4, 0x3c,
  0xa7, 0x5d, 0xbc, 0xbc, 0x52, 0xdd, 0xff, 0xff, 0x04, 0x00, 0x00, 0x00,
  0x00, 0x20, 0x00, 0x00, 0x31, 0xa8, 0x73, 0xbe, 0x63, 0xc5, 0x88, 0x3e,
  0x4f, 0x31, 0xaa, 0xbb, 0x46, 0x87, 0x5d, 0xbe, 0x19, 0xdd, 0x0a, 0x3e,
  0x1b, 0x91, 0x3f, 0xbc, 0x4c, 0xb6, 0xb9, 0xbd, 0x37, 0x0b, 0xf1, 0xbd,
  0xfd, 0xc5, 0xa2, 0x3d, 0xb5, 0x23, 0x57, 0xbe, 0x15, 0xd3, 0x21, 0xbd,
  0x5c, 0xe6, 0x86, 0xbd, 0xb6, 0x3f, 0x18, 0x3e, 0x43, 0xd5, 0x0e, 0xbe,
  0xe9, 0x2d, 0x82, 0x3e, 0x63, 0x21, 0xb4, 0xbd, 0xc6, 0x67, 0x9e, 0xbd,
  0x90, 0x91, 0x8f, 0x3d, 0x22, 0xf6, 0x44, 0x3e, 0x67, 0xf7, 0x4a, 0xbe,
  0xe4, 0x3c, 0x44, 0x3e, 0xeb, 0xa0, 0x86, 0x3e, 0xb2, 0x54, 0x36, 0x3e,
  0x09, 0xeb, 0x29, 0x3e, 0x7d, 0xea, 0x5d, 0x3d, 0x67, 0x9f, 0xc3, 0x3b,
  0xad, 0xb4, 0x20, 0x3e, 0xcc, 0xd2, 0x58, 0x3d, 0x2b, 0xbb, 0x54, 0x3e,
  0xb7, 0x07, 0x2a, 0xbd, 0xab, 0x5a, 0x8b, 0xbe, 0x5d, 0xb0, 0x33, 0xbd,
  0x6e, 0x7b, 0x75, 0x3e, 0x31, 0x74, 0x8e, 0xbd, 0xf6, 0x4b, 0x2a, 0xbe,
  0x2d, 0xb7, 0xcb, 0x3d, 0xcb, 0x9e, 0xa9, 0x3e, 0x17, 0xc9, 0xc7, 0xbc,
  0xd4, 0xd3, 0x75, 0x3e, 0x2e, 0x7d, 0xab, 0x3d, 0xb4, 0xeb, 0x4d, 0x3e,
  0xf4, 0xd7, 0x88, 0xbe, 0x82, 0x8f, 0xb0, 0xbc, 0xfa, 0xbf, 0x94, 0x3e,
  0x7b, 0x76, 0xd4, 0x3c, 0x6b, 0x7f, 0x91, 0xbd, 0x5b, 0x1a, 0xa3, 0x3d,
  0x54, 0x08, 0xb6, 0xbd, 0xbc, 0xdf, 0x19, 0xbe, 0x5c, 0xcb, 0x80, 0xbd,
  0x93, 0xe2, 0x35, 0x3e, 0xdf, 0xa6, 0x5f, 0x3e, 0x84, 0x10, 0x34, 0x3d,
  0xfd, 0xc8, 0x1e, 0x3e, 0x83, 0xa8, 0x6e, 0xbe, 0xa8, 0xa5, 0x50, 0x3e,
  0x3f, 0x88, 0xc9, 0xbd, 0xb3, 0xdb, 0x8e, 0xbe, 0xd4, 0x0b, 0x77, 0xbe,
  0x1e, 0xb5, 0x5f, 0x3e, 0x2b, 0xaa, 0x82, 0x3c, 0xa0, 0x65, 0x16, 0x3d,
  0xd8, 0x82, 0x7b, 0x3e, 0xaa, 0x61, 0xd1, 0x3c, 0xd5, 0xac, 0x21, 0xbe,
  0x40, 0xe9, 0x75, 0x3c, 0xc2, 0x16, 0xb9, 0x3d, 0xb6, 0xeb, 0x14, 0x3e,
  0xd1, 0x4a, 0xa1, 0xbb, 0x5a, 0x63, 0x8b, 0x3c, 0xcc, 0x1a, 0x37, 0xbe,
  0xe5, 0x85, 0x34, 0x3e, 0x35, 0x6f, 0x33, 0xbd, 0x5d, 0xe7, 0x09, 0x3e,
  0xe3, 0x13, 0xc1, 0xbd, 0xb3, 0x99, 0x02, 0x3e, 0xc4, 0x35, 0x42, 0xbd,
  0xc9, 0x6c, 0x1f, 0xbe, 0xce, 0x21, 0x2a, 0xbe, 0xb8, 0x7a, 0xd6, 0xbd,
  0x48, 0xac, 0x34, 0xbd, 0xde, 0x26, 0x54, 0xbd, 0x83, 0xe6, 0x24, 0x3e,
  0x72, 0xdd, 0x46, 0xbe, 0x31, 0xcd, 0x23, 0x3e, 0x29, 0xc1, 0x1f, 0x3e,
  0x9c, 0x87, 0x51, 0x3d, 0x46, 0x69, 0x05, 0x3e, 0xf0, 0x02, 0x08, 0x3d,
  0x0e, 0x41, 0x63, 0x3e, 0x45, 0x59, 0x70, 0xbc, 0xb0, 0x93, 0xcb, 0xbd,
  0x7b, 0x28, 0x48, 0x3e, 0xb6, 0x51, 0xaa, 0xbd, 0x4b, 0xd9, 0x4b, 0xbe,
  0xa4, 0x9f, 0x19, 0x3e, 0x9e, 0x11, 0x27, 0x3e, 0x63, 0xf9, 0x5f, 0x3e,
  0x1c, 0xa2, 0x07, 0x3d, 0xcf, 0x61, 0x3a, 0xbe, 0x21, 0x74, 0xba, 0xbd,
  0x2b, 0x4b, 0x04, 0x3d, 0x99, 0x07, 0xcb, 0xbc, 0x5d, 0xda, 0xac, 0xbc,
  0x99, 0xde, 0xa7, 0x3d, 0x4a, 0x68, 0x05, 0x3e, 0x77, 0x8c, 0xcc, 0x3c,
  0x9f, 0x08, 0x62, 0xbd, 0xbc, 0xef, 0x7d, 0x3e, 0x3c, 0x2c, 0x68, 0xbe,
  0x69, 0xca, 0x37, 0x3e, 0x81, 0xc2, 0x34, 0xbe, 0xc0, 0x62, 0xd4, 0xbd,
  0x80, 0x56, 0x46, 0xbd, 0x47, 0x7a, 0x07, 0x3b, 0xd9, 0x1a, 0xa5, 0x3c,
  0x18, 0xde, 0x9a, 0x3c, 0x5a, 0x50, 0xfb, 0x3d, 0x4c, 0x18, 0x2e, 0xbe,
  0x91, 0xfe, 0xbc, 0x3d, 0x61, 0x39, 0x90, 0xbe, 0x5d, 0x9b, 0x37, 0xbe,
  0x66, 0x22, 0xc8, 0x3d, 0xd7, 0x6e, 0x66, 0xbe, 0x55, 0xe5, 0x56, 0xbe,
  0x0b, 0x80, 0xf2, 0x3d, 0xf0, 0x0b, 0x35, 0x3d, 0xc2, 0x57, 0x78, 0xbe,
  0xf2, 0xd1, 0x5a, 0x3e, 0x0c, 0x08, 0xd5, 0xbd, 0x70, 0xf8, 0x13, 0x3d,
  0xdf, 0x74, 0x25, 0xbe, 0xd9, 0x82, 0x55, 0xbe, 0x3e, 0xe0, 0x34, 0x3d,
  0xe5, 0xa8, 0x59, 0x3d, 0x8e, 0xbd, 0x72, 0xbd, 0xeb, 0x93, 0xcc, 0x3d,
  0xbe, 0x1f, 0x8f, 0x3e, 0x46, 0x4a, 0x66, 0xbe, 0x9d, 0x6c, 0x6d, 0xbe,
  0x9f, 0xd1, 0xd2, 0x3c, 0xd3, 0x3e, 0x81, 0x3e, 0xf1, 0x23, 0xa3, 0xbd,
  0xb5, 0xe3, 0x5c, 0x3e, 0x7f, 0xdd, 0xa8, 0xbd, 0xa0, 0x99, 0x7d, 0xbd,
  0xc1, 0xed, 0xe1, 0x3c, 0x3b, 0xc8, 0x3d, 0xbd, 0x06, 0xa8, 0x52, 0x3c,
  0x60, 0xd1, 0xd0, 0xbc, 0x20, 0xd7, 0x2e, 0x3e, 0xa8, 0x73, 0x20, 0x3a,
  0x2e, 0x17, 0x2a, 0xbe, 0xf2, 0xda, 0x28, 0x3e, 0xd2, 0xd0, 0xbf, 0xbd,
  0xb1, 0x19, 0xb1, 0x3d, 0x95, 0x0c, 0xec, 0x3d, 0x91, 0x2b, 0x22, 0x3d,
  0xe6, 0x7f, 0x9e, 0xbc, 0x3a, 0x64, 0x16, 0x3e, 0x16, 0xab, 0xf3, 0xbb,
  0x3f, 0xaa, 0xbe, 0xbc, 0x17, 0x47, 0xb3, 0xbd, 0x56, 0x07, 0x1d, 0x3e,
  0x92, 0x6c, 0x0e, 0x3d, 0xde, 0xf7, 0x00, 0x3c, 0xbb, 0x93, 0xef, 0xbb,
  0x9d, 0xde, 0x66, 0xbe, 0xd8, 0xb1, 0xc1, 0xbd, 0xf9, 0xea, 0x00, 0xbe,
  0x4a, 0x98, 0xf4, 0x3d, 0x92, 0x59, 0x27, 0xbe, 0xa6, 0xd6, 0x18, 0xbe,
  0xf9, 0xa2, 0x71, 0xbd, 0x8e, 0xc7, 0x8c, 0x3e, 0x50, 0xe0, 0x4c, 0x3d,
  0x17, 0x7c, 0x9f, 0xbb, 0xfa, 0x99, 0xb6, 0xbd, 0x60, 0x52, 0x3e, 0xbe,
  0xff, 0x9a, 0x14, 0xbc, 0xaa, 0x19, 0x0c, 0xbe, 0xca, 0xd5, 0xfd, 0xbd,
  0x4e, 0x42, 0x14, 0xbe, 0xa6, 0x9f, 0x1e, 0xbe, 0x24, 0x57, 0x7e, 0x3e,
  0x6d, 0xd1, 0xa5, 0xbd, 0xf6, 0x46, 0x01, 0x3e, 0x99, 0xfe, 0x5a, 0x3e,
  0x15, 0x4b, 0x3e, 0x3e, 0x1a, 0x88, 0x2f, 0x3e, 0x96, 0xc3, 0x1d, 0xbe,
  0xa2, 0xab, 0xdf, 0xbd, 0x0c, 0x13, 0xfe, 0xbd, 0x5a, 0x1d, 0x38, 0xbd,
  0xcc, 0xbc, 0x8c, 0xbd, 0xdb, 0xc0, 0x12, 0x3e, 0x37, 0x9e, 0x8c, 0x3e,
  0x32, 0x8f, 0xa0, 0x3d, 0xda, 0xff, 0x09, 0xbe, 0x53, 0x64, 0x9c, 0x3c,
  0xd6, 0x4a, 0x8e, 0x3e, 0x97, 0x06, 0x1d, 0x3e, 0xb3, 0x03, 0x55, 0x3e,
  0x61, 0x7d, 0x79, 0xbe, 0x18, 0x76, 0x28, 0xbc, 0x8c, 0x16, 0x2f, 0xbe,
  0x7d, 0x2e, 0xa1, 0x3e, 0x90, 0x24, 0x32, 0x3e, 0x7d, 0xa6, 0x04, 0x3e,
  0x4a, 0x35, 0x6e, 0xbd, 0x47, 0xbd, 0x28, 0x3e, 0xe7, 0x13, 0x8e, 0xbe,
  0xb3, 0x85, 0x51, 0xbd, 0x00, 0x96, 0x2d, 0xbd, 0xff, 0x35, 0x1c, 0xbd,
  0x47, 0x32, 0x54, 0x3d, 0x0f, 0x69, 0x90, 0xba, 0x61, 0xea, 0x37, 0xbe,
  0x58, 0xb4, 0x85, 0x3c, 0xb0, 0x8c, 0xe2, 0x3d, 0xff, 0x28, 0x1a, 0x3d,
  0x42, 0x4c, 0x83, 0x3d, 0xf6, 0xa0, 0xed, 0x3b, 0x1f, 0xfe, 0x65, 0x3d,
  0x83, 0x93, 0x34, 0xbe, 0xea, 0xde, 0xd2, 0xbd, 0xbd, 0x9c, 0x6a, 0x3d,
  0x87, 0x8e, 0x3e, 0xbc, 0x2d, 0x8d, 0x75, 0x3d, 0x84, 0x80, 0x24, 0xbe,
  0x67, 0xfe, 0x4a, 0x3e, 0xef, 0x43, 0x69, 0x3e, 0xee, 0xec, 0x06, 0xbe,
  0xf2, 0x99, 0x48, 0xbe, 0xd6, 0x2f, 0x84, 0x3e, 0x7e, 0x5b, 0x0d, 0x3e,
  0xd8, 0xf8, 0x53, 0x3e, 0x9d, 0x50, 0x38, 0xbd, 0x4d, 0x9f, 0x16, 0x3d,
  0x81, 0xdf, 0x92, 0x3d, 0x08, 0x93, 0x59, 0xbe, 0x6b, 0xd9, 0x16, 0x3d,
  0xfd, 0x71, 0x01, 0xbe, 0xcb, 0x8a, 0xa3, 0x3d, 0x22, 0x17, 0x85, 0xbd,
  0xa0, 0xe4, 0xe8, 0x3d, 0x80, 0x85, 0x8c, 0x3e, 0x81, 0xa7, 0x7a, 0x3e,
  0x93, 0x50, 0x36, 0x3e, 0xb3, 0x04, 0x01, 0x3e, 0x86, 0x50, 0x36, 0x3e,
  0x41, 0x77, 0x34, 0xbd, 0xa6, 0xf6, 0x30, 0xbd, 0x31, 0x56, 0x0c, 0xbe,
  0x69, 0xba, 0x8d, 0xbe, 0x6a, 0x19, 0x3d, 0x3e, 0x20, 0x8a, 0x0f, 0xbe,
  0x59, 0x22, 0x91, 0xbd, 0xb3, 0x30, 0xa6, 0xbd, 0x9e, 0x5d, 0xe3, 0x3d,
  0xd5, 0xfe, 0x7a, 0x3e, 0x4b, 0x41, 0x34, 0xbd, 0x37, 0x35, 0x40, 0xbe,
  0xc9, 0x39, 0x5c, 0xbd, 0x23, 0x6b, 0xb2, 0x3d, 0x20, 0x9c, 0xcb, 0x3d,
  0x9d, 0x6c, 0x94, 0x3d, 0x0a, 0x6c, 0x30, 0xbd, 0xf7, 0xa8, 0x87, 0x3e,
  0xa4, 0xfd, 0x0f, 0xbe, 0xda, 0xb1, 0x7e, 0x3e, 0x38, 0x13, 0x52, 0xbd,
  0x02, 0xac, 0x0f, 0xbc, 0xc2, 0x38, 0x5b, 0x3e, 0x86, 0x1d, 0x98, 0x3e,
  0x5b, 0x52, 0x8f, 0x3e, 0x30, 0x36, 0xa0, 0xbd, 0x8e, 0x6c, 0x84, 0xbd,
  0xa8, 0x8b, 0x12, 0xbe, 0xe2, 0xac, 0x15, 0x3d, 0x22, 0xe7, 0x44, 0xbe,
  0x71, 0x71, 0x3f, 0x3e, 0xf3, 0x6f, 0x01, 0xbe, 0x26, 0x13, 0x7b, 0x3d,
  0x1f, 0x43, 0x98, 0x3e, 0xc0, 0xe0, 0x83, 0x3e, 0x72, 0x12, 0x4b, 0x3e,
  0x77, 0xcf, 0xaf, 0x3d, 0x53, 0x35, 0x67, 0x3d, 0xab, 0x80, 0x80, 0x3e,
  0x88, 0xba, 0x0f, 0xbe, 0x9e, 0x07, 0xbc, 0xbd, 0xe0, 0x1c, 0x0e, 0xbe,
  0x41, 0x5e, 0x5c, 0xbd, 0xcf, 0x3a, 0x0e, 0x3e, 0x38, 0x2f, 0xac, 0x3d,
  0xeb, 0xa4, 0xc4, 0x3d, 0x36, 0x6e, 0xae, 0x3b, 0x7f, 0xab, 0xbd, 0xbd,
  0x3a, 0x63, 0x0d, 0x3c, 0x00, 0x85, 0x18, 0xbc, 0x5e, 0xc9, 0x08, 0xbe,
  0x1d, 0x9d, 0x38, 0xbe, 0x96, 0x68, 0xc2, 0x3b, 0x11, 0xa2, 0x5a, 0xbe,
  0xad, 0xea, 0x39, 0xbe, 0x1a, 0xda, 0x38, 0xbe, 0x53, 0x1e, 0xc7, 0xbc,
  0xbd, 0x4e, 0xb6, 0x3d, 0x7e, 0x61, 0x75, 0x3e, 0x7e, 0x9a, 0x9f, 0xbd,
  0x29, 0xab, 0xef, 0xbd, 0x45, 0x90, 0x63, 0x3e, 0xd7, 0x53, 0x8d, 0x3d,
  0xb7, 0xb5, 0x61, 0x3e, 0xbf, 0x86, 0x57, 0x3e, 0xf2, 0x65, 0x8b, 0xbd,
  0x3a, 0x3f, 0x0c, 0x3e, 0x9e, 0xcf, 0xb6, 0x3d, 0xdd, 0xdb, 0x83, 0x3a,
  0xc6, 0x0f, 0x4c, 0x3e, 0xca, 0x87, 0x8a, 0x3d, 0x2f, 0xaf, 0x4c, 0xbe,
  0xf7, 0xd5, 0x0e, 0xbe, 0xf0, 0x5f, 0x93, 0xbd, 0x69, 0xb8, 0x48, 0x3e,
  0x57, 0x2f, 0xef, 0x3d, 0xb2, 0x05, 0xbb, 0x3d, 0x1b, 0x4f, 0xeb, 0x3c,
  0xe4, 0xa6, 0x78, 0x3e, 0x5b, 0xa2, 0x03, 0xbe, 0xee, 0x70, 0xfb, 0xba,
  0xce, 0x6e, 0x0d, 0x3d, 0x2e, 0xc9, 0x3e, 0xbe, 0x8e, 0xce, 0x53, 0x3e,
  0xa3, 0xe4, 0x6c, 0x3e, 0x94, 0x42, 0x44, 0x3e, 0xf3, 0xe3, 0x23, 0xbe,
  0x31, 0x7b, 0x7a, 0x3e, 0x9f, 0x51, 0x84, 0x3d, 0x3e, 0x7c, 0x78, 0x3e,
  0x78, 0x36, 0x43, 0x3d, 0x3f, 0x4c, 0x3b, 0xbd, 0x94, 0x84, 0xec, 0xbd,
  0xbc, 0xb7, 0x7a, 0x3e, 0xa8, 0xe8, 0x0c, 0x3e, 0x47, 0x88, 0x8f, 0x3e,
  0x9b, 0x81, 0x44, 0xbe, 0x49, 0xe9, 0x95, 0x3e, 0x2f, 0xe8, 0xd8, 0x3c,
  0xf0, 0x5d, 0x80, 0xbe, 0xba, 0xb5, 0x50, 0x3d, 0xa5, 0x88, 0x10, 0xbe,
  0x4f, 0x81, 0xf6, 0xbd, 0x55, 0xac, 0x62, 0xbd, 0x21, 0x1c, 0x94, 0x3d,
  0x92, 0x6f, 0x13, 0x3d, 0xa3, 0x03, 0x6b, 0x3e, 0x26, 0x2d, 0x89, 0x3e,
  0xa1, 0x0d, 0x88, 0x3e, 0x59, 0x87, 0x5a, 0xbd, 0xfe, 0xf0, 0x38, 0x3e,
  0x9b, 0x46, 0x0c, 0xbe, 0x16, 0x56, 0xc2, 0xbd, 0x7f, 0x63, 0xa1, 0x3c,
  0x66, 0x9e, 0x6c, 0x3e, 0x40, 0xc9, 0x65, 0xbe, 0x93, 0x52, 0x3e, 0x3d,
  0xf5, 0x20, 0x18, 0x3d, 0x61, 0x31, 0xf5, 0xbd, 0xbf, 0xa9, 0xee, 0xbc,
  0x24, 0x71, 0xf6, 0x3d, 0x95, 0x8d, 0x1a, 0x3e, 0x66, 0x89, 0x18, 0x3e,
  0x0c, 0xff, 0x04, 0xbc, 0xf6, 0x00, 0x1f, 0xbe, 0xc4, 0xac, 0x8d, 0xbc,
  0x33, 0x6f, 0xe5, 0xbd, 0x2d, 0x70, 0x7d, 0x3d, 0x72, 0x4e, 0xe2, 0x3b,
  0x75, 0xbb, 0x36, 0xbe, 0x52, 0xcd, 0x3e, 0xbe, 0xb7, 0x4d, 0x32, 0xbd,
  0x11, 0x73, 0x52, 0xbd, 0x85, 0x6a, 0x28, 0xbd, 0xa8, 0x9c, 0x10, 0xbe,
  0xad, 0x94, 0x9a, 0x3d, 0x62, 0xa3, 0x90, 0x3d, 0x65, 0xb2, 0x2b, 0xbe,
  0xd2, 0x3f, 0x68, 0xbe, 0x5d, 0xbf, 0x41, 0xbd, 0xdb, 0x42, 0xd1, 0x3d,
  0x90, 0xfe, 0xf4, 0xbb, 0x09, 0xd6, 0x4c, 0x3b, 0x0f, 0x55, 0x0a, 0xbd,
  0x5f, 0x32, 0x5a, 0x3e, 0x28, 0x08, 0xe4, 0x3d, 0x7b, 0xed, 0x94, 0x3d,
  0x73, 0x92, 0xd9, 0xbd, 0x63, 0x7d, 0x41, 0x3d, 0xcd, 0x4b, 0x4f, 0x3e,
  0x8a, 0x4d, 0x2e, 0x3e, 0xfc, 0x15, 0xfc, 0x3d, 0x9d, 0xc8, 0x8a, 0xbe,
  0xaa, 0xce, 0xfb, 0xbd, 0x4d, 0xce, 0x5c, 0xbe, 0x72, 0x93, 0x86, 0xbe,
  0xf2, 0x7f, 0x4c, 0xbe, 0x94, 0x99, 0x54, 0x3e, 0x1d, 0xc2, 0x70, 0x3e,
  0x55, 0xb5, 0x69, 0x3c, 0xda, 0x73, 0x7b, 0x3a, 0x72, 0xbc, 0x86, 0x3d,
  0x01, 0xd9, 0x16, 0x3e, 0xac, 0x9f, 0x4a, 0xbe, 0x9b, 0x60, 0x13, 0x3d,
  0x6d, 0x2f, 0xcc, 0xbd, 0x81, 0xf9, 0xfb, 0xbd, 0x46, 0x33, 0x7a, 0x3e,
  0x12, 0x02, 0x69, 0xbe, 0x6e, 0xbd, 0x81, 0x3d, 0x21, 0x56, 0x40, 0xbd,
  0x64, 0xf6, 0x6f, 0x3e, 0xa8, 0xae, 0x3c, 0x3e, 0xd8, 0x85, 0x3e, 0xbe,
  0xd5, 0x5c, 0x17, 0x3d, 0x26, 0xce, 0xe5, 0x3d, 0x06, 0xc0, 0xcd, 0xbd,
  0x55, 0xef, 0x8d, 0x3d, 0x08, 0x85, 0x57, 0xbe, 0x6b, 0x25, 0x35, 0xbe,
  0x46, 0x8c, 0xfe, 0x3d, 0xdd, 0xa1, 0x31, 0xbe, 0x9e, 0xac, 0x8a, 0xbe,
  0x40, 0xca, 0x38, 0xbe, 0x50, 0x67, 0xab, 0xbc, 0x6e, 0xe8, 0x00, 0x3e,
  0xfe, 0xb5, 0xe0, 0xbd, 0x91, 0x3c, 0x4d, 0xbe, 0xac, 0xbd, 0x2c, 0x3e,
  0x53, 0x56, 0x1e, 0xbd, 0xf4, 0xd2, 0x67, 0x3e, 0x04, 0x96, 0x62, 0xbd,
  0x51, 0xd3, 0x2e, 0xbe, 0x96, 0xf2, 0x4f, 0xbd, 0xb7, 0xf3, 0x1d, 0x3e,
  0xd8, 0xcd, 0xe4, 0x3d, 0x01, 0xce, 0x27, 0xbe, 0x51, 0x5a, 0x76, 0xbe,
  0x7f, 0x04, 0xca, 0xbd, 0x2d, 0x50, 0xa4, 0x3d, 0x3d, 0x06, 0x77, 0x3d,
  0xc8, 0x90, 0x26, 0xbe, 0xdb, 0x6a, 0x57, 0x3e, 0xac, 0x11, 0x6d, 0xbd,
  0x1f, 0x23, 0x89, 0x3e, 0x38, 0x4e, 0xc9, 0xbc, 0x8b, 0x9e, 0x14, 0x3e,
  0xc1, 0xfc, 0x4a, 0xbe, 0xd3, 0x93, 0x86, 0x3e, 0xd0, 0x3a, 0xbc, 0xbd,
  0x2d, 0x6c, 0x0d, 0x3e, 0x3f, 0x44, 0x43, 0x3e, 0xf2, 0xa0, 0x94, 0xbd,
  0x49, 0xe1, 0x52, 0x3e, 0x7b, 0x1f, 0x4e, 0xbd, 0xab, 0x07, 0xb0, 0xbd,
  0x9a, 0x2d, 0x8d, 0x3d, 0x09, 0x77, 0x03, 0x3e, 0x51, 0xce, 0xa4, 0x3d,
  0xc7, 0xd1, 0xd4, 0x3d, 0xe3, 0x02, 0x43, 0xbe, 0x0f, 0x51, 0x3b, 0x3e,
  0xe5, 0x28, 0x0b, 0xbe, 0xe2, 0x0b, 0x2a, 0xbe, 0xce, 0xed, 0x0d, 0x3e,
  0x06, 0xdb, 0xcf, 0x3d, 0xc1, 0xcd, 0x1b, 0x3d, 0xb3, 0x78, 0x88, 0xbd,
  0x62, 0xa5, 0xa5, 0x3d, 0x08, 0x3b, 0xe5, 0x3d, 0xf3, 0x25, 0x45, 0xbe,
  0x5a, 0x44, 0x10, 0xbe, 0xbc, 0xdf, 0x12, 0xbd, 0xe8, 0x60, 0x4e, 0xbe,
  0xa6, 0x91, 0xe1, 0xbd, 0x5d, 0xf0, 0x5b, 0x3e, 0x87, 0x43, 0x08, 0x3e,
  0xee, 0xfe, 0xc5, 0x3d, 0x32, 0x6e, 0x7a, 0x3e, 0x4d, 0x1e, 0x5f, 0x3e,
  0xd8, 0x77, 0x26, 0x3e, 0x7b, 0xc4, 0x49, 0xbe, 0xa2, 0xc7, 0x70, 0x3e,
  0x67, 0xc2, 0x41, 0x3e, 0x71, 0xe8, 0x0e, 0xbd, 0xc5, 0x9d, 0x62, 0xbe,
  0xee, 0x36, 0xde, 0x3c, 0xb4, 0xbb, 0x58, 0xbc, 0xef, 0x80, 0x33, 0xbe,
  0xa0, 0xd7, 0x4c, 0xbd, 0x46, 0x09, 0x24, 0x3e, 0x11, 0xbc, 0x55, 0x3e,
  0x56, 0xff, 0xea, 0x3c, 0x0a, 0x20, 0x4f, 0xbe, 0x25, 0xcc, 0x16, 0xbe,
  0x10, 0x03, 0x27, 0x3e, 0xe2, 0x75, 0xc3, 0xbb, 0xe6, 0x5e, 0x74, 0xbd,
  0x64, 0x06, 0x3f, 0x3e, 0x73, 0x42, 0x79, 0xbd, 0x3e, 0x92, 0x79, 0xbd,
  0xc7, 0x63, 0x1a, 0xbd, 0x9c, 0x32, 0x26, 0xbc, 0xa2, 0x70, 0x59, 0xbe,
  0xc2, 0xee, 0xbc, 0x3d, 0xbd, 0xaa, 0x34, 0xbe, 0xb1, 0xd9, 0x5c, 0xbe,
  0x30, 0x79, 0x4f, 0xbe, 0x1a, 0xcf, 0x52, 0x3e, 0xd0, 0xcc, 0x3b, 0xbd,
  0x36, 0x94, 0xef, 0x3d, 0x22, 0x73, 0xb7, 0xbd, 0x2d, 0x64, 0x44, 0x3e,
  0x5a, 0x31, 0x60, 0xbe, 0x74, 0xa0, 0x80, 0x3d, 0x85, 0x15, 0x4a, 0xbd,
  0xe6, 0x7b, 0x83, 0x3e, 0xbf, 0x32, 0x17, 0xbe, 0x80, 0xf8, 0x4e, 0x3e,
  0xac, 0x10, 0xbf, 0x3d, 0xec, 0x84, 0xfc, 0xbd, 0xd2, 0x61, 0xd8, 0x3c,
  0x18, 0x9f, 0x92, 0x3e, 0xec, 0x20, 0xa0, 0xbd, 0x5f, 0xdf, 0x00, 0xbd,
  0x06, 0x17, 0xb2, 0xbd, 0x7d, 0x54, 0xbd, 0x3d, 0x98, 0xd6, 0x8d, 0xbd,
  0x17, 0x6a, 0x07, 0xbe, 0xb7, 0x0e, 0x50, 0x3e, 0x67, 0x34, 0x6a, 0xbe,
  0x0a, 0x1d, 0xcb, 0xbd, 0x65, 0x6d, 0x3b, 0xbe, 0x82, 0x53, 0x2e, 0x3e,
  0x2c, 0xb2, 0x68, 0x3e, 0x1a, 0xef, 0x63, 0x3e, 0x4e, 0x53, 0x60, 0xbe,
  0xa0, 0x04, 0x45, 0x3e, 0x6c, 0xd7, 0x16, 0x3e, 0x64, 0x4b, 0xb1, 0x3e,
  0xbe, 0xf1, 0xb0, 0x3e, 0x3e, 0xc6, 0xe8, 0xbd, 0x59, 0xec, 0x5a, 0xbe,
  0x9b, 0xe3, 0x76, 0xbe, 0x75, 0x78, 0x94, 0x3d, 0x13, 0x25, 0x4e, 0xbe,
  0xb6, 0x63, 0x45, 0x3e, 0x29, 0xb6, 0x8f, 0xbd, 0x87, 0xa6, 0xc7, 0xbd,
  0xad, 0x87, 0x2c, 0xbd, 0xb1, 0x0d, 0x04, 0xbc, 0x19, 0xe9, 0x1d, 0xbe,
  0x5e, 0xea, 0x2f, 0xbe, 0xb0, 0x24, 0x3f, 0x3e, 0xb7, 0x46, 0x09, 0xbe,
  0x3d, 0x51, 0x4a, 0x3e, 0x70, 0xc0, 0x2e, 0x3e, 0x37, 0x46, 0x3a, 0x3e,
  0x50, 0xe8, 0x59, 0x3e, 0x48, 0x65, 0x62, 0x3d, 0x84, 0x2e, 0x1d, 0xbe,
  0xea, 0xc6, 0x12, 0xbe, 0x52, 0xae, 0xad, 0x3e, 0x6a, 0x63, 0xc8, 0xbd,
  0x94, 0xad, 0xe0, 0x3d, 0x08, 0x0d, 0x29, 0x3e, 0xc8, 0x76, 0xf9, 0xbd,
  0xa6, 0x86, 0x3c, 0xbc, 0x14, 0xa2, 0x2f, 0x3d, 0x7d, 0x7f, 0xdd, 0x3c,
  0xe6, 0x0a, 0x70, 0x3e, 0x45, 0xee, 0x8c, 0x3e, 0x99, 0xac, 0xf5, 0x3c,
  0xc1, 0xba, 0x42, 0xbe, 0x90, 0xa1, 0x16, 0xbc, 0xdb, 0x17, 0xca, 0x3c,
  0x3c, 0x5e, 0x87, 0xba, 0xf7, 0x68, 0x36, 0xbe, 0x56, 0x5f, 0x1e, 0x3e,
  0x69, 0xf7, 0x63, 0x3e, 0x2b, 0x7c, 0x2a, 0xbe, 0x2d, 0xb6, 0x1e, 0xbd,
  0xb5, 0x23, 0xc4, 0xbd, 0x94, 0x55, 0x91, 0x3d, 0x11, 0x70, 0x89, 0x3c,
  0xef, 0x8e, 0x10, 0xbe, 0x01, 0x8f, 0xa6, 0x3e, 0x1c, 0xe8, 0xd2, 0x3d,
  0x34, 0xb6, 0x86, 0xbd, 0xa5, 0xa0, 0x28, 0x3d, 0xd3, 0x66, 0x0c, 0x3e,
  0xe2, 0x62, 0x8a, 0x3d, 0x90, 0x1a, 0x7d, 0xbc, 0x75, 0x69, 0x96, 0x3d,
  0x28, 0x0a, 0xa4, 0xb9, 0x88, 0x91, 0xd2, 0x3d, 0xd9, 0x76, 0x85, 0x3e,
  0x5b, 0xf9, 0x32, 0x3e, 0xc6, 0x6f, 0x46, 0xbe, 0x2e, 0x72, 0x2e, 0xbd,
  0x3c, 0xaa, 0x54, 0xbe, 0xe1, 0x7b, 0x05, 0x3d, 0xfd, 0x11, 0x36, 0xbe,
  0x93, 0xdf, 0xce, 0xbc, 0xdd, 0x9d, 0x6b, 0xbd, 0x94, 0x27, 0x6e, 0x3e,
  0xd7, 0xab, 0x4d, 0x3e, 0x94, 0xb9, 0x2a, 0x3d, 0xf7, 0x38, 0x79, 0x39,
  0x38, 0x44, 0x40, 0xbe, 0xfd, 0xbc, 0x81, 0x3e, 0x7c, 0x56, 0x9d, 0xbc,
  0xbf, 0x65, 0x91, 0x3e, 0x87, 0x80, 0x47, 0xbd, 0x26, 0xbe, 0xa4, 0x3d,
  0x4f, 0xbc, 0xa9, 0xbd, 0xfc, 0xfb, 0x01, 0xbc, 0x31, 0x63, 0x2a, 0x3e,
  0x83, 0xae, 0x67, 0x3e, 0x97, 0x9e, 0x01, 0xbe, 0xbe, 0x92, 0xe2, 0xbd,
  0x35, 0x8a, 0x56, 0x3e, 0xea, 0xf3, 0x5f, 0x3d, 0xf3, 0x58, 0x2e, 0xbd,
  0xec, 0x2d, 0xf4, 0xbb, 0xb1, 0xff, 0x7a, 0x3d, 0xe9, 0x44, 0x36, 0x3e,
  0x65, 0xfe, 0x52, 0xbd, 0x09, 0x5f, 0xef, 0xbd, 0x32, 0x58, 0x89, 0xbc,
  0xb2, 0x67, 0x20, 0x3e, 0xab, 0x8f, 0x8c, 0x3c, 0xf8, 0xfe, 0x45, 0x3e,
  0xcc, 0x63, 0x91, 0xbd, 0x96, 0xf3, 0x5a, 0x3e, 0x7f, 0xb1, 0x11, 0x3e,
  0xf9, 0x22, 0x2f, 0xbe, 0x0b, 0x35, 0x0a, 0xbe, 0x9f, 0xc5, 0x8d, 0x3e,
  0x72, 0xa5, 0x01, 0x3e, 0x1f, 0x8b, 0x75, 0x3e, 0x9d, 0xe6, 0xe2, 0xbd,
  0xe0, 0x72, 0x7e, 0xbd, 0xd9, 0x12, 0xcd, 0x3c, 0x80, 0x72, 0xcc, 0xbd,
  0x9a, 0x63, 0x76, 0x3e, 0x73, 0x2e, 0xe6, 0xbd, 0x9b, 0xcc, 0x9d, 0x3b,
  0xd5, 0x92, 0x97, 0x3e, 0xdf, 0x31, 0x32, 0x3e, 0xb1, 0x03, 0x33, 0xbe,
  0x34, 0xa6, 0x59, 0x3d, 0x09, 0xe3, 0xbd, 0xbd, 0x7e, 0x00, 0x10, 0x3e,
  0x0d, 0x56, 0x42, 0x3e, 0xfa, 0x1f, 0x7d, 0xbe, 0x2d, 0x23, 0x00, 0x3e,
  0xd7, 0x60, 0xff, 0xbc, 0x78, 0x03, 0xf0, 0x3d, 0x3e, 0xb2, 0x49, 0x3e,
  0x9b, 0x1f, 0x83, 0x3e, 0xa1, 0x55, 0x8e, 0xbe, 0x21, 0xe9, 0xbd, 0xbd,
  0x3f, 0xe6, 0x90, 0x3d, 0x93, 0xce, 0x02, 0x3e, 0x0d, 0xec, 0xa1, 0x3b,
  0xb1, 0x16, 0x29, 0xbe, 0xd9, 0x00, 0x03, 0x3e, 0x80, 0xc4, 0x16, 0x3e,
  0x6b, 0xfb, 0xa4, 0xbd, 0xdf, 0xa5, 0x9a, 0x3e, 0x4e, 0x73, 0x77, 0xbd,
  0x19, 0x04, 0xd9, 0x3d, 0x2b, 0x3d, 0xdb, 0xbd, 0x5a, 0x8e, 0x10, 0xbe,
  0xd7, 0x05, 0x07, 0xbe, 0xdb, 0x35, 0x93, 0x3e, 0xbe, 0x55, 0x0e, 0x3e,
  0xa9, 0xcf, 0xca, 0xbd, 0x26, 0xaa, 0x15, 0x3c, 0xc4, 0xc2, 0x3b, 0xbe,
  0xfa, 0x46, 0x0b, 0xbe, 0x4a, 0x7b, 0x2c, 0x3e, 0x00, 0x50, 0x47, 0x3e,
  0x71, 0x2b, 0x61, 0x3d, 0xc9, 0x65, 0xa0, 0x3d, 0x82, 0x68, 0x91, 0xbd,
  0x04, 0x55, 0x8f, 0x3e, 0x7c, 0x0f, 0xd4, 0xbd, 0xfc, 0x63, 0x1e, 0x3d,
  0x9b, 0x8c, 0x4a, 0xbd, 0x6c, 0x58, 0x9a, 0xbd, 0xe3, 0xb8, 0x75, 0xbd,
  0x7e, 0x03, 0xc3, 0x3b, 0x58, 0x86, 0xb6, 0xba, 0xaf, 0x33, 0xd0, 0xbc,
  0x35, 0x96, 0x8a, 0xbe, 0xcf, 0x26, 0x8b, 0xbe, 0xd8, 0x2b, 0x15, 0xbe,
  0xbc, 0x9e, 0x91, 0x3d, 0xf7, 0x3c, 0x36, 0xbe, 0x98, 0x3d, 0xb1, 0xbd,
  0xc5, 0x6a, 0x8a, 0x3e, 0xaf, 0x84, 0x5b, 0x3e, 0x98, 0xcf, 0x1c, 0x3e,
  0x6f, 0x36, 0x54, 0x3e, 0x17, 0x11, 0xa8, 0x3d, 0xa6, 0x54, 0x16, 0xbe,
  0xc5, 0xb8, 0xb8, 0x3d, 0xb5, 0xfa, 0x96, 0xba, 0x99, 0x45, 0xf0, 0x3d,
  0x09, 0xa4, 0x16, 0xbd, 0x37, 0xab, 0x48, 0x3e, 0xaa, 0x1a, 0xdf, 0xbd,
  0xdb, 0x69, 0x6d, 0x3e, 0x36, 0x76, 0x91, 0x3e, 0x08, 0x5a, 0x23, 0x39,
  0x95, 0x58, 0x06, 0x3e, 0x0f, 0x2b, 0x24, 0x3e, 0x67, 0xdf, 0xd0, 0x3c,
  0x9e, 0xc4, 0x10, 0x3e, 0x4d, 0xcc, 0x53, 0xbe, 0x31, 0xd7, 0x73, 0xbe,
  0xc8, 0x95, 0x34, 0xbe, 0x1a, 0xca, 0x31, 0x3e, 0x13, 0x9a, 0x95, 0x3d,
  0xb1, 0xa0, 0x24, 0xbe, 0x3b, 0x62, 0xa6, 0x3d, 0x9b, 0x05, 0xd0, 0xbd,
  0xdd, 0x28, 0x61, 0x3e, 0x5e, 0xa5, 0x19, 0x3d, 0x8d, 0x0c, 0xec, 0xbd,
  0x60, 0xa7, 0x59, 0x3e, 0xf7, 0x45, 0x8f, 0xbc, 0xd9, 0x43, 0x65, 0xbe,
  0xa5, 0x0b, 0x21, 0x3c, 0xeb, 0x96, 0x2f, 0x3e, 0x1d, 0x71, 0x0c, 0x3e,
  0xb6, 0xfe, 0x72, 0xbe, 0x4b, 0xfe, 0x78, 0x3c, 0x9f, 0x30, 0x17, 0xbe,
  0x85, 0xff, 0x15, 0x3e, 0x5d, 0xb2, 0x12, 0xbe, 0xe7, 0xb0, 0x26, 0x3e,
  0x90, 0x2d, 0x03, 0xbd, 0xac, 0x92, 0x1f, 0xbe, 0x2d, 0x0d, 0x18, 0xbd,
  0xa2, 0x87, 0x2f, 0x3e, 0x47, 0xee, 0x2c, 0x3e, 0x59, 0xa6, 0x6d, 0x3d,
  0x77, 0xff, 0x0f, 0x3e, 0x2c, 0x1b, 0x16, 0xbe, 0x1e, 0xb6, 0x04, 0xbe,
  0xa3, 0xb7, 0x97, 0x3d, 0x37, 0xa4, 0xa9, 0xbc, 0xb0, 0xb6, 0x76, 0xbd,
  0x63, 0x43, 0x30, 0x3e, 0x65, 0x08, 0x6a, 0x3e, 0xfc, 0xd8, 0x0b, 0x3d,
  0xbf, 0x64, 0x6d, 0xbc, 0x73, 0xf8, 0x99, 0xbd, 0x8f, 0xdc, 0x74, 0x3e,
  0x0a, 0x93, 0x7a, 0x3e, 0x7b, 0x6c, 0x70, 0x3e, 0xb8, 0xd8, 0x09, 0xbe,
  0xd4, 0x9e, 0x09, 0x3d, 0x57, 0x14, 0x13, 0xbc, 0x6b, 0xee, 0x7f, 0xbe,
  0x48, 0xe7, 0x21, 0x3e, 0x64, 0xe7, 0xa9, 0xbd, 0x92, 0x7a, 0x18, 0xbb,
  0x25, 0x08, 0x44, 0x3e, 0xa7, 0xc2, 0xab, 0xbb, 0x62, 0x04, 0x24, 0xbd,
  0x7f, 0x8e, 0x3b, 0xbe, 0x2d, 0x88, 0x0b, 0x3d, 0xef, 0x2a, 0x59, 0xbe,
  0xee, 0x1a, 0x2e, 0xbe, 0x78, 0xaa, 0x97, 0xbd, 0xdb, 0xac, 0x89, 0xbe,
  0x56, 0xd7, 0x2f, 0xbe, 0x82, 0x23, 0x5d, 0xbe, 0x8a, 0xa6, 0x0d, 0xbe,
  0x6f, 0x7a, 0xf0, 0x3d, 0x12, 0x76, 0xc3, 0xbc, 0x0a, 0x36, 0x00, 0x3e,
  0xa0, 0x1b, 0xb9, 0xbd, 0x34, 0x8c, 0x06, 0xbe, 0xe6, 0xc5, 0x69, 0xbe,
  0xcd, 0xf7, 0x4d, 0xbe, 0xf0, 0x49, 0x1f, 0xbd, 0x70, 0x97, 0x1d, 0x3e,
  0x60, 0xaf, 0x61, 0x3e, 0x1c, 0xa2, 0x8a, 0x3e, 0xd4, 0xcd, 0x0f, 0x3e,
  0xf3, 0x3c, 0x16, 0x3d, 0x05, 0xb9, 0x3d, 0xbe, 0xb3, 0x53, 0xba, 0x3d,
  0x7e, 0x5f, 0xc8, 0x3d, 0xfe, 0x4e, 0x50, 0x3c, 0x65, 0xbb, 0x27, 0x3e,
  0x12, 0x05, 0x2d, 0xbd, 0xea, 0x10, 0xbc, 0x3d, 0x1a, 0x09, 0x34, 0xbe,
  0xa4, 0xc6, 0xf1, 0xbd, 0xe1, 0x69, 0x7e, 0xbb, 0x86, 0xa8, 0xb0, 0xbd,
  0x33, 0x3a, 0xa5, 0x3d, 0xf5, 0xa8, 0x44, 0x3e, 0xcd, 0xf4, 0x37, 0xbe,
  0x64, 0xdf, 0xfe, 0x3d, 0x77, 0xb4, 0x7a, 0x3e, 0x79, 0x61, 0x8a, 0x3e,
  0x15, 0x15, 0x89, 0xbb, 0x78, 0x6b, 0xfc, 0x3d, 0x8c, 0xd5, 0x79, 0x3e,
  0x9f, 0x99, 0x67, 0x3e, 0xdd, 0x39, 0x40, 0x3e, 0x7b, 0xfd, 0x48, 0xbd,
  0x27, 0x04, 0x49, 0xbd, 0x37, 0x78, 0x26, 0x3e, 0x64, 0x19, 0x4e, 0xbe,
  0x16, 0x01, 0xe1, 0xbd, 0xb3, 0xcb, 0x25, 0xbe, 0xbe, 0x02, 0x8a, 0x3e,
  0x17, 0xa6, 0x4a, 0x3e, 0xd2, 0x8c, 0xbf, 0x3d, 0x6e, 0x12, 0x07, 0x3e,
  0x8a, 0xb0, 0x44, 0xbd, 0x2b, 0xdf, 0x4a, 0x3e, 0x1f, 0xb2, 0x82, 0xbe,
  0x6a, 0x18, 0x5d, 0xbe, 0xe8, 0x48, 0x90, 0x3e, 0x8e, 0x1e, 0x83, 0x3d,
  0x8d, 0xc8, 0x68, 0x3e, 0x93, 0x92, 0x3c, 0x3e, 0x54, 0xe9, 0xcd, 0xbd,
  0x68, 0x37, 0x66, 0x3e, 0x9b, 0x87, 0x16, 0x3e, 0xf6, 0xe5, 0x2d, 0xbd,
  0x25, 0xe5, 0x29, 0xbd, 0xe8, 0xe8, 0x05, 0x3d, 0x50, 0x64, 0x74, 0xbe,
  0xee, 0x4b, 0x25, 0x3e, 0x49, 0x5d, 0x8d, 0x3d, 0xe5, 0x11, 0x58, 0xbd,
  0x76, 0xbe, 0x74, 0xbe, 0xc5, 0x6f, 0x1b, 0xbd, 0x1f, 0x8b, 0x2a, 0x3d,
  0x9f, 0xca, 0x33, 0x3d, 0x5e, 0xd4, 0x3d, 0x3d, 0xcc, 0x0a, 0x51, 0xbe,
  0x28, 0xc4, 0x41, 0x3e, 0x5b, 0x7d, 0x18, 0xbe, 0xda, 0x1f, 0x25, 0xbe,
  0x5f, 0x37, 0x2c, 0x3e, 0xd6, 0x62, 0xe6, 0xbd, 0x2d, 0xcc, 0x60, 0xbd,
  0x56, 0x59, 0x0e, 0x3e, 0xb3, 0x2e, 0x73, 0x3e, 0x54, 0x02, 0xb8, 0xbd,
  0xc6, 0x49, 0xa3, 0x3c, 0x65, 0xe2, 0x00, 0xbe, 0xce, 0xfc, 0x7f, 0xbe,
  0x7d, 0x17, 0x1e, 0x3e, 0xb9, 0x11, 0x82, 0xbe, 0x43, 0xe5, 0x35, 0xbe,
  0xab, 0x09, 0xd2, 0x3d, 0x22, 0x0f, 0x45, 0xbe, 0xbb, 0x5e, 0x52, 0x3e,
  0x60, 0xfb, 0x44, 0xbe, 0xde, 0x7b, 0x73, 0x3d, 0x35, 0x2e, 0x7d, 0xbd,
  0xa7, 0x56, 0x70, 0xbd, 0x2f, 0x32, 0x18, 0x3e, 0x45, 0x32, 0x7e, 0xbd,
  0xb6, 0x97, 0xd9, 0x3c, 0xcf, 0xe2, 0x5f, 0xbe, 0x8e, 0x2e, 0xc5, 0xbc,
  0xb0, 0x01, 0x3c, 0x3c, 0x5e, 0xdf, 0xe8, 0xbb, 0xda, 0x7f, 0x31, 0xbd,
  0xec, 0x0b, 0x59, 0x3e, 0x98, 0x40, 0xd0, 0xbd, 0xd9, 0x2b, 0xeb, 0xbd,
  0xe0, 0x8d, 0xa0, 0xbc, 0x94, 0x40, 0x04, 0xbd, 0xa3, 0xee, 0x24, 0xbe,
  0x31, 0x94, 0xeb, 0xbd, 0xa1, 0x79, 0xcc, 0x3c, 0xd5, 0x1d, 0x19, 0xbe,
  0x17, 0xbb, 0xf7, 0xbc, 0x48, 0x72, 0x21, 0xbe, 0xc3, 0x38, 0x85, 0x3d,
  0xd1, 0x0f, 0xcf, 0xbd, 0x37, 0xed, 0x6e, 0x3d, 0x9a, 0x4c, 0x4a, 0xbe,
  0x19, 0x2b, 0x09, 0x3e, 0x86, 0x57, 0x5b, 0xbd, 0xd7, 0xa1, 0x46, 0xbd,
  0x97, 0x4e, 0x01, 0x3d, 0x01, 0x5d, 0x38, 0x3e, 0xc3, 0xc4, 0x97, 0x3e,
  0xd6, 0xc7, 0x9e, 0xbd, 0x7b, 0x4a, 0xd5, 0xbd, 0x80, 0x9f, 0x99, 0xbc,
  0xc4, 0x49, 0x48, 0xbd, 0x53, 0x56, 0x05, 0xbe, 0xb5, 0x7f, 0x2e, 0x3e,
  0x13, 0x57, 0x2d, 0x3e, 0xbd, 0xfd, 0x76, 0x3e, 0x5c, 0x40, 0xe3, 0x3d,
  0x3e, 0xf9, 0x19, 0x3e, 0x2f, 0x39, 0xd9, 0x3d, 0xd2, 0x15, 0x79, 0x3d,
  0x16, 0x4d, 0xc8, 0x3d, 0x09, 0xc8, 0xff, 0x3d, 0xc8, 0x3c, 0x66, 0x3e,
  0x6e, 0x3a, 0x51, 0x3e, 0xb1, 0x53, 0x14, 0xbd, 0x36, 0x06, 0x66, 0xbd,
  0x76, 0x4a, 0x91, 0xbd, 0x9d, 0x20, 0x1c, 0xbd, 0x17, 0x6a, 0xe5, 0xbd,
  0x48, 0x48, 0xb1, 0x3c, 0x56, 0xf7, 0xd9, 0xbd, 0xb0, 0x5c, 0x74, 0xbe,
  0x23, 0xf1, 0x0f, 0x3e, 0x30, 0x01, 0xf4, 0xbd, 0x49, 0x16, 0x47, 0xbe,
  0x9a, 0x08, 0xc7, 0x3d, 0x1b, 0xe7, 0x68, 0x3e, 0x8a, 0x0e, 0x41, 0x3e,
  0xb3, 0x8d, 0x3b, 0xbd, 0xf6, 0x83, 0x65, 0x3e, 0x6b, 0xce, 0x56, 0xbe,
  0xcd, 0xd5, 0x16, 0xbe, 0x20, 0xb1, 0x5d, 0xbe, 0x91, 0x54, 0x34, 0xbe,
  0x2c, 0x85, 0x72, 0x3e, 0x19, 0xfb, 0xc9, 0xbd, 0xe4, 0x3b, 0xd8, 0x3b,
  0x9e, 0x3a, 0x12, 0xbe, 0x13, 0xcb, 0xf4, 0xbd, 0xd7, 0xb8, 0x5f, 0x3e,
  0x2f, 0xbb, 0x84, 0x3d, 0xf8, 0xc7, 0x9c, 0x3d, 0xeb, 0x2a, 0x36, 0x3e,
  0xec, 0x97, 0x52, 0x3e, 0x9f, 0x42, 0x3f, 0x3e, 0xfe, 0x63, 0x73, 0xbd,
  0x6f, 0x3c, 0xcb, 0xbc, 0xd2, 0x84, 0x1a, 0xbe, 0x96, 0x58, 0x6b, 0xbd,
  0xb8, 0xd1, 0xcd, 0xbd, 0x68, 0x66, 0xdf, 0x3d, 0x7c, 0x81, 0x2a, 0xbe,
  0x40, 0xef, 0x6e, 0x3d, 0x4c, 0x60, 0x94, 0x3e, 0xcd, 0x03, 0x10, 0xbe,
  0x5d, 0xda, 0x24, 0x3e, 0xfb, 0x62, 0x78, 0xbe, 0x43, 0xd9, 0x16, 0x3e,
  0x4f, 0x1e, 0x58, 0x3e, 0x19, 0x98, 0x6e, 0xbe, 0xef, 0xf7, 0x7e, 0xbe,
  0x2b, 0x89, 0x6d, 0x3e, 0x76, 0x1d, 0x53, 0xbe, 0x11, 0xd1, 0x5c, 0x3c,
  0x33, 0xf6, 0xa1, 0xbd, 0xca, 0x65, 0x8d, 0xbd, 0x0f, 0xed, 0xb7, 0x3b,
  0x99, 0x12, 0x23, 0x3e, 0xe5, 0xdd, 0xe7, 0x3b, 0x6c, 0xe5, 0x92, 0x3d,
  0x37, 0x9b, 0xb1, 0x3c, 0x19, 0x4c, 0x8d, 0xbe, 0x9b, 0x3a, 0xfe, 0xbd,
  0xec, 0xa2, 0x60, 0xbe, 0xea, 0xf0, 0xee, 0x3d, 0x4c, 0xbc, 0xa5, 0x3b,
  0x73, 0x88, 0x60, 0xbe, 0x7e, 0xc2, 0x29, 0x3e, 0x85, 0x05, 0x01, 0x3e,
  0x6a, 0x13, 0x98, 0xbd, 0x04, 0xba, 0x01, 0x3e, 0x1c, 0x19, 0xc7, 0x3d,
  0x70, 0x4b, 0x47, 0x3e, 0xcb, 0xdc, 0x55, 0xbe, 0xd6, 0x70, 0xcc, 0x3d,
  0xbb, 0x22, 0x3e, 0x3d, 0x76, 0xc3, 0xaf, 0xbd, 0xcd, 0x7b, 0xf9, 0x3d,
  0x6f, 0x46, 0xeb, 0xbc, 0xe6, 0x34, 0x24, 0x3d, 0x96, 0xe6, 0x8a, 0x3e,
  0xe5, 0x64, 0xb5, 0xbd, 0xa8, 0x72, 0x49, 0xbe, 0x1a, 0x62, 0x95, 0x3e,
  0x30, 0x33, 0x2a, 0xbe, 0xc8, 0xe1, 0x20, 0xbd, 0x7d, 0x39, 0x11, 0x3e,
  0x56, 0xba, 0xc1, 0xbd, 0x8a, 0xa2, 0x0a, 0x3e, 0xe0, 0x9a, 0x02, 0x3e,
  0x97, 0x57, 0x53, 0x3e, 0x5e, 0xf1, 0x1c, 0x3e, 0xd2, 0x0b, 0xe7, 0x3d,
  0x61, 0xd3, 0xcd, 0xbd, 0x46, 0xde, 0x87, 0xbe, 0x24, 0xa5, 0x15, 0xbe,
  0xf0, 0x5e, 0x08, 0x3e, 0xf6, 0x7f, 0x17, 0xbe, 0x98, 0x12, 0x4e, 0x3e,
  0x0d, 0xad, 0x82, 0x3e, 0x37, 0x7c, 0xeb, 0xbc, 0x4e, 0x92, 0x71, 0xbc,
  0x31, 0x2f, 0x11, 0x3e, 0xb3, 0x17, 0x2a, 0x3e, 0xab, 0xcf, 0xcf, 0x3d,
  0x56, 0x41, 0x64, 0x3e, 0x85, 0xee, 0xc9, 0xbb, 0xef, 0xba, 0x0c, 0xbe,
  0x79, 0x8a, 0x81, 0xbc, 0x7b, 0x03, 0x4a, 0xbc, 0xd0, 0xcc, 0x1f, 0xbe,
  0x1a, 0xbb, 0x0e, 0xbe, 0x64, 0x21, 0xb2, 0x3c, 0x7e, 0xfb, 0x22, 0xbe,
  0x7a, 0x17, 0xd0, 0x3d, 0x48, 0xe2, 0x32, 0x3e, 0xf9, 0x5f, 0x05, 0x3e,
  0xab, 0x91, 0x06, 0xbc, 0xba, 0xac, 0x4f, 0x3e, 0x5e, 0x21, 0x1a, 0xbc,
  0x23, 0x2e, 0x4c, 0xbd, 0xca, 0x09, 0x7e, 0xbe, 0xa9, 0x80, 0x41, 0xbe,
  0x01, 0x3e, 0x64, 0xbd, 0x41, 0x00, 0x2e, 0x3d, 0x30, 0x47, 0xd3, 0x3d,
  0x2f, 0x87, 0x63, 0x3e, 0x4d, 0x15, 0x03, 0xbe, 0x81, 0x44, 0xba, 0x3d,
  0x59, 0xaf, 0x04, 0xbe, 0x65, 0x4a, 0x0d, 0xbc, 0x7f, 0x8f, 0x7c, 0xbe,
  0x82, 0x7f, 0xf9, 0x3b, 0x36, 0x09, 0x35, 0xbe, 0x35, 0x03, 0x58, 0x3e,
  0x27, 0xc6, 0x5a, 0x3e, 0x22, 0xa6, 0xa0, 0x3e, 0x3e, 0x24, 0x78, 0xbd,
  0xf2, 0x66, 0xc2, 0x3d, 0x84, 0xc7, 0x2a, 0xbc, 0x23, 0x24, 0xbf, 0x3d,
  0x85, 0xd7, 0x40, 0x3d, 0xfa, 0x92, 0x6f, 0xbe, 0x6a, 0xce, 0x43, 0xbe,
  0x4d, 0x18, 0x21, 0x3d, 0x0a, 0xf9, 0x12, 0xbe, 0x10, 0xb3, 0xb3, 0x3d,
  0x9b, 0xaa, 0x85, 0xbe, 0x93, 0xb8, 0x07, 0x3c, 0x18, 0x5b, 0x02, 0x3e,
  0xfd, 0xc9, 0x41, 0x3d, 0xcf, 0xe9, 0xb3, 0xbd, 0x0a, 0x7e, 0x11, 0xbd,
  0x6a, 0x81, 0x01, 0xbd, 0x10, 0x07, 0x61, 0x3e, 0x3f, 0x0b, 0x53, 0xbe,
  0x84, 0xe3, 0x09, 0x3e, 0xb8, 0xc8, 0x05, 0x3d, 0xe5, 0x64, 0x11, 0x3e,
  0x96, 0xf4, 0x97, 0x3e, 0xff, 0x32, 0x3d, 0x3e, 0x58, 0x92, 0x89, 0x3e,
  0xe8, 0x78, 0xb3, 0xbd, 0x05, 0x27, 0x56, 0xbe, 0x8d, 0x2f, 0x30, 0xbe,
  0xa7, 0xf5, 0x82, 0x3e, 0xa1, 0x5d, 0x52, 0x3e, 0xa1, 0xc0, 0x11, 0xbe,
  0x44, 0x44, 0x3f, 0x3d, 0xb9, 0x40, 0x93, 0x3e, 0xd3, 0xf6, 0x0c, 0xbe,
  0x8d, 0xb0, 0xbd, 0xbc, 0xf8, 0xc2, 0x73, 0xbd, 0xc0, 0x7b, 0x7a, 0x3e,
  0x7b, 0xfa, 0x50, 0x3e, 0xba, 0x02, 0xff, 0xbd, 0x2b, 0x5d, 0x47, 0xbe,
  0xe2, 0x6b, 0x3b, 0x3d, 0xbd, 0x51, 0x88, 0xbd, 0x3e, 0x60, 0xeb, 0x3d,
  0xa1, 0x04, 0x80, 0x3c, 0xa4, 0x44, 0x8f, 0x3d, 0xbb, 0x90, 0x73, 0x3d,
  0xf8, 0x0d, 0xf1, 0x3d, 0x06, 0x03, 0x16, 0xbe, 0x51, 0x31, 0x66, 0xbe,
  0x04, 0xdf, 0x31, 0xbe, 0x15, 0x53, 0x4b, 0xbe, 0x32, 0xb4, 0x74, 0xbe,
  0x29, 0x94, 0x0a, 0x3e, 0x0e, 0x27, 0xd4, 0x3d, 0x15, 0x55, 0xb0, 0xbd,
  0xeb, 0x25, 0x6c, 0xbe, 0x3d, 0xd4, 0xfd, 0x3d, 0x19, 0xb5, 0x4a, 0x3e,
  0xd8, 0x72, 0x13, 0xbe, 0xbd, 0x4e, 0x63, 0xbe, 0x19, 0xfe, 0x2d, 0xbc,
